{
  "version": "1.0",
  "truncation": null,
  "padding": null,
  "added_tokens": [],
  "normalizer": null,
  "pre_tokenizer": {
    "type": "ByteLevel",
    "add_prefix_space": false,
    "trim_offsets": true,
    "use_regex": true
  },
  "post_processor": null,
  "decoder": {
    "type": "ByteLevel",
    "add_prefix_space": true,
    "trim_offsets": true,
    "use_regex": true
  },
  "model": {
    "type": "BPE",
    "dropout": null,
    "unk_token": null,
    "continuing_subword_prefix": null,
    "end_of_word_suffix": null,
    "fuse_unk": false,
    "byte_fallback": false,
    "ignore_merges": false,
    "vocab": {
      "!": 0,
      "\"": 1,
      "#": 2,
      "$": 3,
      "%": 4,
      "&": 5,
      "'": 6,
      "(": 7,
      ")": 8,
      "*": 9,
      "+": 10,
      ",": 11,
      "-": 12,
      ".": 13,
      "/": 14,
      "0": 15,
      "1": 16,
      "2": 17,
      "3": 18,
      "4": 19,
      "5": 20,
      "6": 21,
      "7": 22,
      "8": 23,
      "9": 24,
      ":": 25,
      ";": 26,
      "<": 27,
      "=": 28,
      ">": 29,
      "?": 30,
      "@": 31,
      "A": 32,
      "B": 33,
      "C": 34,
      "D": 35,
      "E": 36,
      "F": 37,
      "G": 38,
      "H": 39,
      "I": 40,
      "J": 41,
      "K": 42,
      "L": 43,
      "M": 44,
      "N": 45,
      "O": 46,
      "P": 47,
      "Q": 48,
      "R": 49,
      "S": 50,
      "T": 51,
      "U": 52,
      "V": 53,
      "W": 54,
      "X": 55,
      "Y": 56,
      "Z": 57,
      "[": 58,
      "\\": 59,
      "]": 60,
      "^": 61,
      "_": 62,
      "`": 63,
      "a": 64,
      "b": 65,
      "c": 66,
      "d": 67,
      "e": 68,
      "f": 69,
      "g": 70,
      "h": 71,
      "i": 72,
      "j": 73,
      "k": 74,
      "l": 75,
      "m": 76,
      "n": 77,
      "o": 78,
      "p": 79,
      "q": 80,
      "r": 81,
      "s": 82,
      "t": 83,
      "u": 84,
      "v": 85,
      "w": 86,
      "x": 87,
      "y": 88,
      "z": 89,
      "{": 90,
      "|": 91,
      "}": 92,
      "~": 93,
      "¡": 94,
      "¢": 95,
      "£": 96,
      "¤": 97,
      "¥": 98,
      "¦": 99,
      "§": 100,
      "¨": 101,
      "©": 102,
      "ª": 103,
      "«": 104,
      "¬": 105,
      "®": 106,
      "¯": 107,
      "°": 108,
      "±": 109,
      "²": 110,
      "³": 111,
      "´": 112,
      "µ": 113,
      "¶": 114,
      "·": 115,
      "¸": 116,
      "¹": 117,
      "º": 118,
      "»": 119,
      "¼": 120,
      "½": 121,
      "¾": 122,
      "¿": 123,
      "À": 124,
      "Á": 125,
      "Â": 126,
      "Ã": 127,
      "Ä": 128,
      "Å": 129,
      "Æ": 130,
      "Ç": 131,
      "È": 132,
      "É": 133,
      "Ê": 134,
      "Ë": 135,
      "Ì": 136,
      "Í": 137,
      "Î": 138,
      "Ï": 139,
      "Ð": 140,
      "Ñ": 141,
      "Ò": 142,
      "Ó": 143,
      "Ô": 144,
      "Õ": 145,
      "Ö": 146,
      "×": 147,
      "Ø": 148,
      "Ù": 149,
      "Ú": 150,
      "Û": 151,
      "Ü": 152,
      "Ý": 153,
      "Þ": 154,
      "ß": 155,
      "à": 156,
      "á": 157,
      "â": 158,
      "ã": 159,
      "ä": 160,
      "å": 161,
      "æ": 162,
      "ç": 163,
      "è": 164,
      "é": 165,
      "ê": 166,
      "ë": 167,
      "ì": 168,
      "í": 169,
      "î": 170,
      "ï": 171,
      "ð": 172,
      "ñ": 173,
      "ò": 174,
      "ó": 175,
      "ô": 176,
      "õ": 177,
      "ö": 178,
      "÷": 179,
      "ø": 180,
      "ù": 181,
      "ú": 182,
      "û": 183,
      "ü": 184,
      "ý": 185,
      "þ": 186,
      "ÿ": 187,
      "Ā": 188,
      "ā": 189,
      "Ă": 190,
      "ă": 191,
      "Ą": 192,
      "ą": 193,
      "Ć": 194,
      "ć": 195,
      "Ĉ": 196,
      "ĉ": 197,
      "Ċ": 198,
      "ċ": 199,
      "Č": 200,
      "č": 201,
      "Ď": 202,
      "ď": 203,
      "Đ": 204,
      "đ": 205,
      "Ē": 206,
      "ē": 207,
      "Ĕ": 208,
      "ĕ": 209,
      "Ė": 210,
      "ė": 211,
      "Ę": 212,
      "ę": 213,
      "Ě": 214,
      "ě": 215,
      "Ĝ": 216,
      "ĝ": 217,
      "Ğ": 218,
      "ğ": 219,
      "Ġ": 220,
      "ġ": 221,
      "Ģ": 222,
      "ģ": 223,
      "Ĥ": 224,
      "ĥ": 225,
      "Ħ": 226,
      "ħ": 227,
      "Ĩ": 228,
      "ĩ": 229,
      "Ī": 230,
      "ī": 231,
      "Ĭ": 232,
      "ĭ": 233,
      "Į": 234,
      "į": 235,
      "İ": 236,
      "ı": 237,
      "Ĳ": 238,
      "ĳ": 239,
      "Ĵ": 240,
      "ĵ": 241,
      "Ķ": 242,
      "ķ": 243,
      "ĸ": 244,
      "Ĺ": 245,
      "ĺ": 246,
      "Ļ": 247,
      "ļ": 248,
      "Ľ": 249,
      "ľ": 250,
      "Ŀ": 251,
      "ŀ": 252,
      "Ł": 253,
      "ł": 254,
      "Ń": 255,
      "Ġt": 256,
      "Ġa": 257,
      "he": 258,
      "in": 259,
      "re": 260,
      "Ġthe": 261,
      "on": 262,
      "er": 263,
      "Ġo": 264,
      "at": 265,
      "Ġs": 266,
      "en": 267,
      "Ġc": 268,
      "Ġw": 269,
      "es": 270,
      "is": 271,
      "nd": 272,
      "it": 273,
      "or": 274,
      "Ġp": 275,
      "al": 276,
      "ed": 277,
      "Ġb": 278,
      "Ġof": 279,
      "an": 280,
      "Ġf": 281,
      "ing": 282,
      "Ġin": 283,
      "ar": 284,
      "ou": 285,
      "Ġm": 286,
      "Ġand": 287,
      "Ġto": 288,
      "ic": 289,
      "Ġd": 290,
      "ion": 291,
      "le": 292,
      "ro": 293,
      "as": 294,
      "Ġh": 295,
      "Ġth": 296,
      "ent": 297,
      "ct": 298,
      "Ġe": 299,
      "il": 300,
      "Ġre": 301,
      "om": 302,
      "ve": 303,
      "Ġl": 304,
      "st": 305,
      "Ġn": 306,
      "ly": 307,
      "Ġbe": 308,
      "âĢ": 309,
      "Ġis": 310,
      "ĠT": 311,
      "se": 312,
      "ol": 313,
      "Ġg": 314,
      "ation": 315,
      "im": 316,
      "id": 317,
      "et": 318,
      "ut": 319,
      "ce": 320,
      "ot": 321,
      "ur": 322,
      "ra": 323,
      "ow": 324,
      "ch": 325,
      "ĠA": 326,
      "Ġfor": 327,
      "ig": 328,
      "Ġthat": 329,
      "ĠS": 330,
      "Ġon": 331,
      "Ġu": 332,
      "Ġst": 333,
      "ver": 334,
      "ĠC": 335,
      "ĠI": 336,
      "ir": 337,
      "Ġy": 338,
      "ul": 339,
      "ay": 340,
      "am": 341,
      "Ġas": 342,
      "el": 343,
      "ith": 344,
      "ad": 345,
      "her": 346,
      "Ġpro": 347,
      "Ġcon": 348,
      "Ġare": 349,
      "Ġan": 350,
      "Ġwith": 351,
      "Ġwh": 352,
      "if": 353,
      "Ġit": 354,
      "Ġor": 355,
      "Ġal": 356,
      "ter": 357,
      "ĠM": 358,
      "Ġyou": 359,
      "od": 360,
      "Ġ(": 361,
      "ĠThe": 362,
      "ge": 363,
      "ment": 364,
      "Ġ1": 365,
      "ĠP": 366,
      "th": 367,
      "ist": 368,
      "op": 369,
      "ate": 370,
      "ers": 371,
      "Ġde": 372,
      "ies": 373,
      "Ġhe": 374,
      "ill": 375,
      "ab": 376,
      "ĠB": 377,
      "us": 378,
      "ess": 379,
      "Ġex": 380,
      "Ġwe": 381,
      "ect": 382,
      "ore": 383,
      "Ġsu": 384,
      "Ġcom": 385,
      "ity": 386,
      "âĢĻ": 387,
      "est": 388,
      "Ġha": 389,
      "res": 390,
      "ive": 391,
      "ĠH": 392,
      "ld": 393,
      "rom": 394,
      "um": 395,
      "ac": 396,
      "os": 397,
      "Ġby": 398,
      "Ġv": 399,
      "ke": 400,
      "em": 401,
      "ant": 402,
      "iv": 403,
      "qu": 404,
      "ĠW": 405,
      "ain": 406,
      "Ġat": 407,
      "nt": 408,
      "Ġwas": 409,
      "pp": 410,
      "ĠD": 411,
      "igh": 412,
      "ĠE": 413,
      "ud": 414,
      "Ġfrom": 415,
      "and": 416,
      "end": 417,
      "oc": 418,
      "Ġch": 419,
      "Ġcan": 420,
      "Ġr": 421,
      "ĠR": 422,
      "ort": 423,
      "Ġne": 424,
      "ĠF": 425,
      "Ġse": 426,
      "ial": 427,
      "Ġ2": 428,
      "ure": 429,
      "Ġnot": 430,
      "ĠâĢ": 431,
      "un": 432,
      "ĠN": 433,
      "art": 434,
      "Ġle": 435,
      "ical": 436,
      "ĠG": 437,
      "Ġhave": 438,
      "te": 439,
      "ri": 440,
      "ĠL": 441,
      "og": 442,
      "Ġsh": 443,
      "Ġthis": 444,
      "Ġsp": 445,
      "00": 446,
      "pt": 447,
      "Ġab": 448,
      "rou": 449,
      "ich": 450,
      "ight": 451,
      "red": 452,
      "all": 453,
      "Ġwor": 454,
      "ould": 455,
      "ther": 456,
      "gh": 457,
      "The": 458,
      "ome": 459,
      "ost": 460,
      "ions": 461,
      "our": 462,
      "ated": 463,
      "du": 464,
      "Ġim": 465,
      "per": 466,
      "ine": 467,
      "Ġus": 468,
      "ard": 469,
      "ag": 470,
      "out": 471,
      "Ġpl": 472,
      "Ġtheir": 473,
      "ell": 474,
      "ĠO": 475,
      "ide": 476,
      "ff": 477,
      "act": 478,
      "Ġen": 479,
      "ans": 480,
      "ear": 481,
      "pl": 482,
      "ĠJ": 483,
      "age": 484,
      "ust": 485,
      "Ġwhich": 486,
      "Ġk": 487,
      "ak": 488,
      "ast": 489,
      "ous": 490,
      "Ġwhe": 491,
      "Ġthey": 492,
      "ec": 493,
      "ĠU": 494,
      "Ġall": 495,
      "iz": 496,
      "ĠIn": 497,
      "ood": 498,
      "Ġyour": 499,
      "ib": 500,
      "Ġad": 501,
      "ap": 502,
      "ult": 503,
      "Ġinc": 504,
      "ia": 505,
      "Ġwill": 506,
      "Ġdis": 507,
      "cc": 508,
      "ru": 509,
      "âĢĿ": 510,
      "ong": 511,
      "Ġmore": 512,
      "Ġcont": 513,
      "Ġcomp": 514,
      "Ġhas": 515,
      "ip": 516,
      "vel": 517,
      "ations": 518,
      "Ġres": 519,
      "ew": 520,
      "ary": 521,
      "orm": 522,
      "so": 523,
      "Ġdo": 524,
      "Ġint": 525,
      "ater": 526,
      "Ġwere": 527,
      "ĠTh": 528,
      "Ġother": 529,
      "Ġbut": 530,
      "Ġcl": 531,
      "ild": 532,
      "ence": 533,
      "Ġman": 534,
      "xt": 535,
      "ual": 536,
      "are": 537,
      "able": 538,
      "ks": 539,
      "ry": 540,
      "'s": 541,
      "Ġme": 542,
      "ĠâĢľ": 543,
      "Ġper": 544,
      "Ġone": 545,
      "ance": 546,
      "ind": 547,
      "ach": 548,
      "Ġ19": 549,
      "ren": 550,
      "ents": 551,
      "Ġalso": 552,
      "Ġte": 553,
      "Ġimp": 554,
      "ose": 555,
      "reat": 556,
      "ass": 557,
      "ep": 558,
      "ake": 559,
      "ign": 560,
      "ress": 561,
      "ase": 562,
      "Ġj": 563,
      "au": 564,
      "av": 565,
      "ition": 566,
      "Ġso": 567,
      "ber": 568,
      "ice": 569,
      "Ġar": 570,
      "Ġun": 571,
      "ction": 572,
      "Ġout": 573,
      "Ġpart": 574,
      "very": 575,
      "Ġapp": 576,
      "ime": 577,
      "ish": 578,
      "Ġabout": 579,
      "fe": 580,
      "Ġhis": 581,
      "ord": 582,
      "Ġev": 583,
      "ory": 584,
      "one": 585,
      "ok": 586,
      "ame": 587,
      "Ġwho": 588,
      "ens": 589,
      "ace": 590,
      "ount": 591,
      "Ġstud": 592,
      "ire": 593,
      ").": 594,
      "ub": 595,
      "Ġpe": 596,
      "ack": 597,
      "Ġinf": 598,
      "ĠK": 599,
      "Ġ\"": 600,
      "Ġsc": 601,
      "ue": 602,
      "Ġthem": 603,
      "Ġsy": 604,
      "ite": 605,
      "Ġcomm": 606,
      "ors": 607,
      "of": 608,
      "ree": 609,
      "ang": 610,
      "ound": 611,
      "ĠSt": 612,
      "now": 613,
      "ike": 614,
      "ces": 615,
      "low": 616,
      "Ġbec": 617,
      "Ġup": 618,
      "ĠIt": 619,
      "olog": 620,
      "ĠCh": 621,
      "ie": 622,
      "Ġthan": 623,
      "Ġpre": 624,
      "ian": 625,
      "ile": 626,
      "Ġmay": 627,
      "Ġyear": 628,
      "Ġqu": 629,
      "ric": 630,
      "Ġsome": 631,
      "Ġbeen": 632,
      "Ġrec": 633,
      "ays": 634,
      "Ġthere": 635,
      "ople": 636,
      "ates": 637,
      "ail": 638,
      "ings": 639,
      "nder": 640,
      "Ġwhen": 641,
      "mer": 642,
      "ough": 643,
      "ph": 644,
      "Ġits": 645,
      "Ġag": 646,
      "Ġinto": 647,
      "Ġgo": 648,
      "rit": 649,
      "text": 650,
      "Ġtime": 651,
      "Ġtra": 652,
      "vers": 653,
      "Ġwork": 654,
      "Ġhad": 655,
      "ons": 656,
      "Ġ20": 657,
      "erv": 658,
      "ĠV": 659,
      "Ġthese": 660,
      "rough": 661,
      "Ġover": 662,
      "ĠThis": 663,
      "ally": 664,
      "lud": 665,
      "Ġhow": 666,
      "ove": 667,
      "ond": 668,
      "Ġpeople": 669,
      "Ġdif": 670,
      "ms": 671,
      "Ġra": 672,
      "tern": 673,
      "Ġcons": 674,
      "ause": 675,
      "ll": 676,
      "Ġcol": 677,
      "Ġour": 678,
      "Ġ3": 679,
      "Ġro": 680,
      "rent": 681,
      "Ġtr": 682,
      "Ġact": 683,
      "we": 684,
      "Ġuse": 685,
      "ific": 686,
      "Ġbet": 687,
      "Ġmost": 688,
      "int": 689,
      "lic": 690,
      "irst": 691,
      "Ġknow": 692,
      "Ġwould": 693,
      "Ġsa": 694,
      "|>": 695,
      "<|": 696,
      "endof": 697,
      "endoftext": 698,
      "ject": 699,
      "Ġdes": 700,
      "lect": 701,
      "Ġunder": 702,
      "ys": 703,
      "ments": 704,
      "ities": 705,
      "ious": 706,
      "ning": 707,
      "Ġlike": 708,
      "Ġbl": 709,
      "ook": 710,
      "row": 711,
      "Ġtw": 712,
      "Ġacc": 713,
      "Ġnew": 714,
      "ĠY": 715,
      "alth": 716,
      "stem": 717,
      "les": 718,
      "velop": 719,
      "Ġrel": 720,
      "Ġsuch": 721,
      "ational": 722,
      "ient": 723,
      "Ġif": 724,
      "Ġrep": 725,
      "Ġneed": 726,
      "ffect": 727,
      "Ġno": 728,
      "Ġany": 729,
      "hed": 730,
      "Ġinclud": 731,
      "Ġchild": 732,
      "Ġgen": 733,
      "ative": 734,
      "ular": 735,
      "Ġonly": 736,
      "ple": 737,
      "Ġwhat": 738,
      "),": 739,
      "Ġpr": 740,
      "Ġhel": 741,
      "ob": 742,
      "cess": 743,
      "ced": 744,
      "Ġprov": 745,
      "Ġph": 746,
      "ov": 747,
      "ĠUn": 748,
      "Ġpo": 749,
      "Ġfirst": 750,
      "ating": 751,
      "Ġmany": 752,
      "Ġused": 753,
      "Ġthrough": 754,
      "Ġhelp": 755,
      "Ġprodu": 756,
      "yp": 757,
      "iet": 758,
      "ĠHe": 759,
      "uc": 760,
      "Ġind": 761,
      "Ġam": 762,
      "erm": 763,
      "oss": 764,
      "Ġdevelop": 765,
      "ath": 766,
      "ise": 767,
      "fter": 768,
      "round": 769,
      "Ġspec": 770,
      "ool": 771,
      "ne": 772,
      "rib": 773,
      "Ġac": 774,
      "ark": 775,
      "Ġem": 776,
      "uring": 777,
      "Ġreg": 778,
      "Ġtwo": 779,
      "ics": 780,
      "Ġfe": 781,
      "Ġexp": 782,
      "ink": 783,
      "Ġsystem": 784,
      "hen": 785,
      "ful": 786,
      "iss": 787,
      "ied": 788,
      "Ġob": 789,
      "Ġoff": 790,
      "old": 791,
      "oth": 792,
      "eth": 793,
      "ility": 794,
      "Ġdiffe": 795,
      "ert": 796,
      "Ġass": 797,
      "Ġatt": 798,
      "ible": 799,
      "Ġdec": 800,
      "Ġsur": 801,
      "rop": 802,
      "ife": 803,
      "ased": 804,
      "Ġ-": 805,
      "ten": 806,
      "als": 807,
      "Ġadd": 808,
      "ange": 809,
      "ĠâĢĵ": 810,
      "arch": 811,
      "ng": 812,
      "Ġ201": 813,
      "Ġ200": 814,
      "ts": 815,
      "ble": 816,
      "fore": 817,
      "aw": 818,
      "ower": 819,
      "Ġshould": 820,
      "In": 821,
      "ures": 822,
      "Ġsupp": 823,
      "Ġfl": 824,
      "ram": 825,
      "Ġyears": 826,
      "sel": 827,
      "Ġwell": 828,
      "Ġrem": 829,
      "ween": 830,
      "ract": 831,
      "Ġinv": 832,
      "own": 833,
      "ade": 834,
      "gan": 835,
      "Ġcould": 836,
      "Ġ4": 837,
      "Ġco": 838,
      "ution": 839,
      "Ġwater": 840,
      "its": 841,
      "Ġsub": 842,
      "Ġsm": 843,
      "Ġbetween": 844,
      "Ġwhere": 845,
      "wn": 846,
      "hes": 847,
      "cy": 848,
      "Ġpres": 849,
      "Ġhigh": 850,
      "ily": 851,
      "uch": 852,
      "Ġher": 853,
      "land": 854,
      "Ġear": 855,
      "Ġmake": 856,
      "Ġhealth": 857,
      "ick": 858,
      "ident": 859,
      "ited": 860,
      "Ġpers": 861,
      "ss": 862,
      "ever": 863,
      "Ġtrans": 864,
      "Ġbu": 865,
      "Ġ5": 866,
      "Ġrese": 867,
      "form": 868,
      "Ġget": 869,
      "Ġinter": 870,
      "ants": 871,
      "ology": 872,
      "ivers": 873,
      "Ġimport": 874,
      "Ġdisc": 875,
      "meric": 876,
      "ural": 877,
      "Ġform": 878,
      "ting": 879,
      "Ġpol": 880,
      "ists": 881,
      "Ġmod": 882,
      "ience": 883,
      "Ġinst": 884,
      "chool": 885,
      "Ġnum": 886,
      "ines": 887,
      "ism": 888,
      "Ġfound": 889,
      "chn": 890,
      "ron": 891,
      "Ġexam": 892,
      "ict": 893,
      "ins": 894,
      "Ġmed": 895,
      "Ġcent": 896,
      "ually": 897,
      "gy": 898,
      "Ġthen": 899,
      "Ġlar": 900,
      "Ġlong": 901,
      "Ġeven": 902,
      "Ġ18": 903,
      "Ġlear": 904,
      "Ġbecause": 905,
      "oy": 906,
      "Ġhum": 907,
      "urn": 908,
      "Ġvery": 909,
      "Ġafter": 910,
      "Ġworld": 911,
      "Ġjust": 912,
      "cept": 913,
      "Ġinform": 914,
      "Ġsim": 915,
      "Ġdifferent": 916,
      "ata": 917,
      "Ġed": 918,
      "ature": 919,
      "Ġincre": 920,
      "other": 921,
      "Ġexper": 922,
      "Ġeffect": 923,
      "ness": 924,
      "hat": 925,
      "Ġway": 926,
      "Ġcount": 927,
      "ef": 928,
      "Ġdet": 929,
      "ĠAmeric": 930,
      "Ġsee": 931,
      "Ġpub": 932,
      "Ġcar": 933,
      "get": 934,
      "ically": 935,
      "aking": 936,
      "Ġfol": 937,
      "Ġthose": 938,
      "vent": 939,
      "ives": 940,
      "Ġcall": 941,
      "Ġsoc": 942,
      "Ġtyp": 943,
      "Ġresp": 944,
      "Ġgener": 945,
      "tle": 946,
      "ft": 947,
      "iew": 948,
      "Ġevery": 949,
      "Ġsaid": 950,
      "Ġke": 951,
      "Ġvar": 952,
      "ork": 953,
      "Ġext": 954,
      "ck": 955,
      "con": 956,
      "cer": 957,
      "Ġsec": 958,
      "omm": 959,
      "Ġprog": 960,
      "Ġsign": 961,
      "Ġbeing": 962,
      "Ġchildren": 963,
      "Ġloc": 964,
      "ues": 965,
      "Ġfact": 966,
      "led": 967,
      "arm": 968,
      "Ġeach": 969,
      "ps": 970,
      ".âĢĿ": 971,
      "Ġset": 972,
      "ases": 973,
      "Ġgra": 974,
      "ruct": 975,
      "vern": 976,
      "Ġlife": 977,
      "Ġpartic": 978,
      "Ġresult": 979,
      "Ġpat": 980,
      "Ġend": 981,
      "Ġca": 982,
      "Ġshe": 983,
      "ĠAl": 984,
      "Ġprocess": 985,
      "ather": 986,
      "Ġfam": 987,
      "Ġmy": 988,
      "Ġdist": 989,
      "Ġmuch": 990,
      "ĠWe": 991,
      "ved": 992,
      "Ġart": 993,
      "ages": 994,
      "cent": 995,
      "Ġown": 996,
      "ĠPro": 997,
      "..": 998,
      "Th": 999,
      "Ġduring": 1000,
      "Ġmon": 1001,
      "Ġread": 1002,
      "ody": 1003,
      "Ġimportant": 1004,
      "Ġinformation": 1005,
      "ward": 1006,
      "Ġrequ": 1007,
      "iron": 1008,
      "Ġcre": 1009,
      "ds": 1010,
      "Ġent": 1011,
      "Ġcommun": 1012,
      "imes": 1013,
      "Ġtechn": 1014,
      "Ġsame": 1015,
      "ĠRe": 1016,
      "Ġdep": 1017,
      "Ġfollow": 1018,
      "Ġaut": 1019,
      "ĠThey": 1020,
      "Ġright": 1021,
      "Ġstudents": 1022,
      "Ġlevel": 1023,
      "Ġins": 1024,
      "ĠAs": 1025,
      "ized": 1026,
      "Ġmade": 1027,
      "gg": 1028,
      "Ġlead": 1029,
      "Ġfood": 1030,
      "ection": 1031,
      "Ġdoes": 1032,
      "ices": 1033,
      "any": 1034,
      "io": 1035,
      "hip": 1036,
      "ted": 1037,
      "Ġcur": 1038,
      "Ġdef": 1039,
      "Ġstudy": 1040,
      "ĠAr": 1041,
      "Ġ6": 1042,
      "Ġgrow": 1043,
      "the": 1044,
      "Ġperson": 1045,
      "Ġsk": 1046,
      "Ġstr": 1047,
      "Ġfind": 1048,
      "und": 1049,
      "Ġref": 1050,
      "Ġpop": 1051,
      "ize": 1052,
      "ĠIf": 1053,
      "Ġmin": 1054,
      "ars": 1055,
      "Ġboth": 1056,
      "Ġgood": 1057,
      "Ġproble": 1058,
      "Ġback": 1059,
      "ĠFor": 1060,
      "ĠAn": 1061,
      "||": 1062,
      "Ġbefore": 1063,
      "ty": 1064,
      "Ġche": 1065,
      "Ġhist": 1066,
      "Ġdata": 1067,
      "ale": 1068,
      "Ġsmall": 1069,
      "Ġav": 1070,
      "iversity": 1071,
      "Ġshow": 1072,
      "ince": 1073,
      "Ġgrou": 1074,
      "inal": 1075,
      "ĠCon": 1076,
      "Ġschool": 1077,
      "Ġexpl": 1078,
      "Ġagain": 1079,
      "Ġbo": 1080,
      "Ġcomple": 1081,
      "000": 1082,
      "19": 1083,
      "Ġusing": 1084,
      "ially": 1085,
      "omen": 1086,
      "Ġprot": 1087,
      "orn": 1088,
      "iel": 1089,
      "ished": 1090,
      "viron": 1091,
      "Ġdi": 1092,
      "read": 1093,
      "ined": 1094,
      "oh": 1095,
      "imate": 1096,
      "der": 1097,
      "Ġmain": 1098,
      "20": 1099,
      "ax": 1100,
      "rest": 1101,
      "ality": 1102,
      "rol": 1103,
      "Ġoften": 1104,
      "Ġgl": 1105,
      "Ġtest": 1106,
      "stand": 1107,
      "Ġstate": 1108,
      "Ġless": 1109,
      "ivid": 1110,
      ".,": 1111,
      "ĠNew": 1112,
      "Ġposs": 1113,
      "ĠHow": 1114,
      "Ġwhile": 1115,
      "ute": 1116,
      "irect": 1117,
      "ral": 1118,
      "ran": 1119,
      "Ġcell": 1120,
      "Ġlit": 1121,
      "ix": 1122,
      "Ġsol": 1123,
      "Ġhim": 1124,
      "Ġinte": 1125,
      "Ġnow": 1126,
      "ury": 1127,
      "Ġtreat": 1128,
      "ergy": 1129,
      "Ġday": 1130,
      "Ġserv": 1131,
      "Ġval": 1132,
      "Ġhuman": 1133,
      "ulation": 1134,
      "ien": 1135,
      "Ġnumber": 1136,
      "Ġdise": 1137,
      "Ġocc": 1138,
      "Ġpower": 1139,
      "Ġvis": 1140,
      "Ġtake": 1141,
      "ĠSp": 1142,
      "Ġris": 1143,
      "iety": 1144,
      "ĠInd": 1145,
      "akes": 1146,
      "Ġprovid": 1147,
      "Ġresearch": 1148,
      "uss": 1149,
      "ier": 1150,
      "Ġmem": 1151,
      "Ġchar": 1152,
      "Ġorgan": 1153,
      "Ġthree": 1154,
      "ock": 1155,
      "Ġsupport": 1156,
      "air": 1157,
      "Ġclass": 1158,
      "iving": 1159,
      "ters": 1160,
      "Ġdown": 1161,
      "Ġfun": 1162,
      "de": 1163,
      "up": 1164,
      "ves": 1165,
      "cl": 1166,
      "Ġest": 1167,
      "dition": 1168,
      "Ġactiv": 1169,
      "ven": 1170,
      "Ġbody": 1171,
      "Ġaround": 1172,
      "hers": 1173,
      "Ġmust": 1174,
      "vironment": 1175,
      "Ġbel": 1176,
      "ĠSc": 1177,
      "Ġland": 1178,
      "Ġdid": 1179,
      "Ġ10": 1180,
      "Ġgovern": 1181,
      "iqu": 1182,
      "âĢĶ": 1183,
      "Ġpoint": 1184,
      "Ġgreat": 1185,
      "Ġdesign": 1186,
      "Ġplan": 1187,
      "Ġhand": 1188,
      "ex": 1189,
      "Ġ7": 1190,
      "ĠBut": 1191,
      "Ġelect": 1192,
      "aj": 1193,
      "self": 1194,
      "day": 1195,
      "Ġlook": 1196,
      "ital": 1197,
      "Ġstart": 1198,
      "ouse": 1199,
      "ains": 1200,
      "Ġser": 1201,
      "Ġcommon": 1202,
      "Ġcontin": 1203,
      "Ġlarge": 1204,
      "ave": 1205,
      "ving": 1206,
      "ger": 1207,
      "Ġredu": 1208,
      "ah": 1209,
      "ium": 1210,
      "Ġexample": 1211,
      "Ġret": 1212,
      "This": 1213,
      "ee": 1214,
      "acter": 1215,
      "Ġthough": 1216,
      "gen": 1217,
      "ross": 1218,
      "itions": 1219,
      "Ġop": 1220,
      "Ġcour": 1221,
      "Ġcle": 1222,
      "ared": 1223,
      "com": 1224,
      "Ġconst": 1225,
      "ull": 1226,
      "Ġincluding": 1227,
      "Ġpublic": 1228,
      "ring": 1229,
      ",âĢĿ": 1230,
      "Ġreport": 1231,
      "outh": 1232,
      "Ġcalled": 1233,
      "way": 1234,
      ".\"": 1235,
      "Ġ8": 1236,
      "Ġwrit": 1237,
      "oun": 1238,
      "Ġcor": 1239,
      "Ġallow": 1240,
      "ional": 1241,
      "Ġsom": 1242,
      "Ġeduc": 1243,
      "Ġbuild": 1244,
      "Ġmet": 1245,
      "Ġstill": 1246,
      "Ġcare": 1247,
      "me": 1248,
      "Ġknown": 1249,
      "ash": 1250,
      "ĠThere": 1251,
      "Ġconf": 1252,
      "inc": 1253,
      "Ġide": 1254,
      "iven": 1255,
      "ĠAnd": 1256,
      "lish": 1257,
      "els": 1258,
      "Ġthink": 1259,
      "esp": 1260,
      "rain": 1261,
      "osed": 1262,
      "Ġappro": 1263,
      "iod": 1264,
      "Ġequ": 1265,
      "__": 1266,
      "Ġadv": 1267,
      "reen": 1268,
      "Ġpract": 1269,
      "ĠIs": 1270,
      "Ġunderstand": 1271,
      "Ġgu": 1272,
      "iver": 1273,
      "Ġquest": 1274,
      "Ġfew": 1275,
      "conom": 1276,
      "âĢĵ": 1277,
      "ected": 1278,
      "âĢľ": 1279,
      "10": 1280,
      "ĠâĢĺ": 1281,
      "ĠYou": 1282,
      "ination": 1283,
      "Ġ199": 1284,
      "ired": 1285,
      "Ġdr": 1286,
      "ived": 1287,
      "bers": 1288,
      "ids": 1289,
      "Ġbeh": 1290,
      "ense": 1291,
      "ĠEng": 1292,
      "Ġplace": 1293,
      "aterial": 1294,
      "oci": 1295,
      "eral": 1296,
      "Ġ9": 1297,
      "Ġmat": 1298,
      "ividual": 1299,
      "rence": 1300,
      "Ġmight": 1301,
      "Ġeas": 1302,
      "oms": 1303,
      "Ġwithout": 1304,
      "ĠWh": 1305,
      "ries": 1306,
      "Ġstand": 1307,
      "itive": 1308,
      "ĠDe": 1309,
      "ians": 1310,
      "Ġchang": 1311,
      "raph": 1312,
      "ĠUniversity": 1313,
      "ization": 1314,
      "Ġcap": 1315,
      "ior": 1316,
      "ources": 1317,
      "ential": 1318,
      "Ġlearn": 1319,
      "tt": 1320,
      "Ġchange": 1321,
      "Ġwithin": 1322,
      "Ġtem": 1323,
      "ĠThese": 1324,
      "ason": 1325,
      "Ġdem": 1326,
      "Ġsocial": 1327,
      "Ġcaus": 1328,
      "Ġphys": 1329,
      "ording": 1330,
      "ertain": 1331,
      "man": 1332,
      "Ġiss": 1333,
      "Ġdirect": 1334,
      "Ġenergy": 1335,
      "Ġpresent": 1336,
      "orth": 1337,
      "Ġproduct": 1338,
      "ering": 1339,
      "Ġpur": 1340,
      "ethod": 1341,
      "Ġwant": 1342,
      "ption": 1343,
      "ffic": 1344,
      "Ġsl": 1345,
      "illion": 1346,
      "Ġenvironment": 1347,
      "Ġident": 1348,
      "Ġanother": 1349,
      "ĠAmerican": 1350,
      "Ġlaw": 1351,
      "Ġdon": 1352,
      "Ġbre": 1353,
      "ration": 1354,
      "less": 1355,
      "Ġindividual": 1356,
      "Ġdevelopment": 1357,
      "angu": 1358,
      "Ġdesc": 1359,
      "gin": 1360,
      "ets": 1361,
      "ton": 1362,
      "line": 1363,
      "Ġproject": 1364,
      "Ġdisease": 1365,
      "alk": 1366,
      "Ġsym": 1367,
      "Ġ&": 1368,
      "ability": 1369,
      "ner": 1370,
      "Ġpot": 1371,
      "irc": 1372,
      "Ġplay": 1373,
      "rist": 1374,
      "Ġmaterial": 1375,
      "Ġpos": 1376,
      "ccess": 1377,
      "sc": 1378,
      "eng": 1379,
      "Ġwomen": 1380,
      "ajor": 1381,
      "Ġpass": 1382,
      "to": 1383,
      "Ġhome": 1384,
      "Ġinterest": 1385,
      "Ġarea": 1386,
      "Ġimm": 1387,
      "Ġben": 1388,
      "Ġsit": 1389,
      "Ġrest": 1390,
      "'t": 1391,
      "Ġbelie": 1392,
      "Ġimpro": 1393,
      "Ġprof": 1394,
      "Ġlight": 1395,
      "arent": 1396,
      "Ġve": 1397,
      "Ġmus": 1398,
      "iness": 1399,
      "It": 1400,
      "Ġbas": 1401,
      "ified": 1402,
      "Ġcult": 1403,
      "rodu": 1404,
      "ug": 1405,
      "agn": 1406,
      "ental": 1407,
      "Ġinclude": 1408,
      "lished": 1409,
      "ological": 1410,
      "ered": 1411,
      "erc": 1412,
      "ained": 1413,
      "bs": 1414,
      "ris": 1415,
      "ern": 1416,
      "Ġwar": 1417,
      "Ġgovernment": 1418,
      "Ġcontrol": 1419,
      "Ġrisk": 1420,
      "az": 1421,
      "ats": 1422,
      "ĠPh": 1423,
      "ield": 1424,
      "Ġpain": 1425,
      "hor": 1426,
      "Ġagainst": 1427,
      "Ġearly": 1428,
      "Ġant": 1429,
      "Ġpar": 1430,
      "ently": 1431,
      "Ġet": 1432,
      "Ġbecome": 1433,
      "ify": 1434,
      "Ġeng": 1435,
      "Ġleg": 1436,
      "ik": 1437,
      "ways": 1438,
      "Ġbest": 1439,
      "Ġeconom": 1440,
      "Ġopp": 1441,
      "Ġold": 1442,
      "Ġele": 1443,
      "Ġblood": 1444,
      "Ġmil": 1445,
      "atic": 1446,
      "Ġlow": 1447,
      "Ġsever": 1448,
      "arc": 1449,
      "Ġprogram": 1450,
      "ĠAd": 1451,
      "Ġmove": 1452,
      "Ġanim": 1453,
      "Ġmeas": 1454,
      "Ġmark": 1455,
      "atural": 1456,
      "Ġproper": 1457,
      "ĠSh": 1458,
      "ead": 1459,
      "Ġmethod": 1460,
      "Ġsecond": 1461,
      "cing": 1462,
      "Ġreal": 1463,
      "ision": 1464,
      "ories": 1465,
      "Ġorder": 1466,
      "here": 1467,
      "ission": 1468,
      "Ġbetter": 1469,
      "Ġfamily": 1470,
      "Ġanal": 1471,
      "Ġmeans": 1472,
      "Ġlast": 1473,
      "Ġtoo": 1474,
      "Ġunt": 1475,
      "Ġhere": 1476,
      "ank": 1477,
      "Ġfore": 1478,
      "Ġpercent": 1479,
      "Ġter": 1480,
      "Ġhistory": 1481,
      "ĠHowever": 1482,
      "ining": 1483,
      "use": 1484,
      "ource": 1485,
      "Ġgroup": 1486,
      "amp": 1487,
      "Ġmajor": 1488,
      "ĠUnited": 1489,
      "ĠSe": 1490,
      "idence": 1491,
      "Ġparticular": 1492,
      "rap": 1493,
      "Ġtre": 1494,
      "Ġtop": 1495,
      "Ġprovide": 1496,
      "Ġnear": 1497,
      "ples": 1498,
      "Ġoccur": 1499,
      "ider": 1500,
      "ĠOn": 1501,
      "Ġdev": 1502,
      "ĠCol": 1503,
      "Ġorig": 1504,
      "ret": 1505,
      "Ġoper": 1506,
      "ention": 1507,
      "Ġsay": 1508,
      "Ġcurrent": 1509,
      "Ġpossible": 1510,
      "ĠEx": 1511,
      "pect": 1512,
      "Ġmar": 1513,
      "Ġperiod": 1514,
      "ĠâĢĶ": 1515,
      "Ġfin": 1516,
      "ote": 1517,
      "Ġkeep": 1518,
      "ware": 1519,
      "Ġair": 1520,
      "ills": 1521,
      "Ġavail": 1522,
      "ĠCl": 1523,
      "Ġscient": 1524,
      "icle": 1525,
      "omp": 1526,
      "ĠCan": 1527,
      "Ġseveral": 1528,
      "Ġcause": 1529,
      "ards": 1530,
      "Ġaddition": 1531,
      "oid": 1532,
      "ĠZ": 1533,
      "Ġsince": 1534,
      "ĠRes": 1535,
      "Ġ15": 1536,
      "ograph": 1537,
      "lu": 1538,
      "ina": 1539,
      "Ġindu": 1540,
      "view": 1541,
      "ĠWhen": 1542,
      "Ġdiff": 1543,
      "Ġable": 1544,
      "ĠPl": 1545,
      "Ġopen": 1546,
      "Ġhig": 1547,
      "Ġthings": 1548,
      "Ġinvol": 1549,
      "Ġperform": 1550,
      "Ġhapp": 1551,
      "Ġmen": 1552,
      "though": 1553,
      "Ġobject": 1554,
      "Ġel": 1555,
      "Ġspecies": 1556,
      "Ġlangu": 1557,
      "ients": 1558,
      "Ġlearning": 1559,
      "Ġprom": 1560,
      "Ġnon": 1561,
      "ĠComm": 1562,
      "urop": 1563,
      ",\"": 1564,
      "Ġsays": 1565,
      "Ġmean": 1566,
      "Ġbenef": 1567,
      "ogn": 1568,
      "Ġfre": 1569,
      "Ġareas": 1570,
      "Ġothers": 1571,
      "Ġlim": 1572,
      "ĠGod": 1573,
      "ĠAt": 1574,
      "Ġname": 1575,
      "ator": 1576,
      "Ġbased": 1577,
      "ames": 1578,
      "ĠStates": 1579,
      "Ġbus": 1580,
      "Ġaffect": 1581,
      "Ġprop": 1582,
      "Ġfour": 1583,
      "Ġ[": 1584,
      "Ġcal": 1585,
      "par": 1586,
      "Ġspe": 1587,
      "Ġamong": 1588,
      "Ġcountry": 1589,
      "Ġfeel": 1590,
      "ĠQ": 1591,
      "rid": 1592,
      "ilar": 1593,
      "Ġtimes": 1594,
      "ole": 1595,
      "ended": 1596,
      "Ġstruct": 1597,
      "sy": 1598,
      "Ġcells": 1599,
      "ploy": 1600,
      "Ġfollowing": 1601,
      "be": 1602,
      "Ġplant": 1603,
      "osp": 1604,
      "ĠTo": 1605,
      "Ġlab": 1606,
      "Ġwee": 1607,
      "Ġhead": 1608,
      "Ġcertain": 1609,
      "Ġtreatment": 1610,
      "Ġsignific": 1611,
      "ĠChrist": 1612,
      "ably": 1613,
      "Ġcase": 1614,
      "Ġsuccess": 1615,
      "Ġcond": 1616,
      "Ġavailable": 1617,
      "stit": 1618,
      "Ġcost": 1619,
      "ling": 1620,
      "Ġlo": 1621,
      "Ġview": 1622,
      "Ġrun": 1623,
      "ised": 1624,
      "Ġlater": 1625,
      "Ġage": 1626,
      "urope": 1627,
      "ĠEn": 1628,
      "une": 1629,
      "Ġbir": 1630,
      "elf": 1631,
      "Ġaccess": 1632,
      "ww": 1633,
      "Ġfar": 1634,
      "Ġlocal": 1635,
      "urther": 1636,
      "Ġbi": 1637,
      "Ġbro": 1638,
      "Ġfree": 1639,
      "Ġfac": 1640,
      "Ġlittle": 1641,
      "What": 1642,
      "Ġpost": 1643,
      "Ġmonth": 1644,
      "Ġ17": 1645,
      "ends": 1646,
      "Ġrece": 1647,
      "Ġ.": 1648,
      "Ġpress": 1649,
      "We": 1650,
      "Ġconn": 1651,
      "ots": 1652,
      "ĠCent": 1653,
      "Ġcome": 1654,
      "ocus": 1655,
      "hy": 1656,
      "Ġdel": 1657,
      "Ġlist": 1658,
      "ĠBe": 1659,
      "ope": 1660,
      "Ġuntil": 1661,
      "ething": 1662,
      "work": 1663,
      "Ġprevent": 1664,
      "ither": 1665,
      "Ġproblem": 1666,
      "Ġput": 1667,
      "resent": 1668,
      "oint": 1669,
      "Ġcreat": 1670,
      "Ġlet": 1671,
      "ggest": 1672,
      "ged": 1673,
      "Ġhard": 1674,
      "ression": 1675,
      "Ġbook": 1676,
      "olution": 1677,
      "18": 1678,
      "Ġseem": 1679,
      "ĠNational": 1680,
      "Ġintern": 1681,
      "Ġproblems": 1682,
      "Ġpolit": 1683,
      "ĠOr": 1684,
      "12": 1685,
      "icult": 1686,
      "Ġlevels": 1687,
      "Ġamount": 1688,
      "oks": 1689,
      "Ġassoci": 1690,
      "ately": 1691,
      "Ġgiven": 1692,
      "ĠEurope": 1693,
      "ledge": 1694,
      "ured": 1695,
      "Ġflow": 1696,
      "por": 1697,
      "Ġturn": 1698,
      "Ġshort": 1699,
      "ones": 1700,
      "Ġnatural": 1701,
      "Ġsuggest": 1702,
      "Ġtype": 1703,
      "aper": 1704,
      "If": 1705,
      "ĠTe": 1706,
      "Ġess": 1707,
      "not": 1708,
      "Ġyoung": 1709,
      "Ġ12": 1710,
      "Ġsw": 1711,
      "over": 1712,
      "Ġcho": 1713,
      "aken": 1714,
      "uture": 1715,
      "Ġ16": 1716,
      "Ġ$": 1717,
      "Ġrad": 1718,
      "Ġmult": 1719,
      "Ġvol": 1720,
      "Ġdeterm": 1721,
      "sp": 1722,
      "Ġindust": 1723,
      "ortun": 1724,
      "Ġcirc": 1725,
      "Ġcomput": 1726,
      "Ġmaking": 1727,
      "ances": 1728,
      "ohn": 1729,
      "Ġsomething": 1730,
      "ĠAf": 1731,
      "Ġeducation": 1732,
      "Ġinvest": 1733,
      "Ġheart": 1734,
      "pr": 1735,
      "orld": 1736,
      "ides": 1737,
      "ned": 1738,
      "hem": 1739,
      "Ġcourse": 1740,
      "ication": 1741,
      "Ġdra": 1742,
      "Ġfunction": 1743,
      "Ġcentury": 1744,
      "atory": 1745,
      "ĠMed": 1746,
      "vious": 1747,
      "Ġimpact": 1748,
      "aps": 1749,
      "Ġalong": 1750,
      "Ġdeath": 1751,
      "Ġfocus": 1752,
      "Ġcomb": 1753,
      "ĠLe": 1754,
      "Ġappear": 1755,
      "Ġsing": 1756,
      "Ġdue": 1757,
      "Ġalways": 1758,
      "Ġwords": 1759,
      "Ġlikely": 1760,
      "Ġfil": 1761,
      "orts": 1762,
      "ym": 1763,
      "ĠAll": 1764,
      "agement": 1765,
      "Ġsignificant": 1766,
      "Ġclear": 1767,
      "ried": 1768,
      "Ġpopulation": 1769,
      "Ġauthor": 1770,
      "Ġincrease": 1771,
      "Ġdays": 1772,
      "Ġvir": 1773,
      "Ġdescrib": 1774,
      "ĠUS": 1775,
      "ember": 1776,
      "Ġteac": 1777,
      "Ġrele": 1778,
      "Ġgive": 1779,
      "Ġexist": 1780,
      "ending": 1781,
      "ecially": 1782,
      "face": 1783,
      "Ġey": 1784,
      "Ġcancer": 1785,
      "Ġbehav": 1786,
      "Ġlanguage": 1787,
      "Ġsystems": 1788,
      "Ġabove": 1789,
      "Ġtoday": 1790,
      "icro": 1791,
      "Ġobs": 1792,
      "cle": 1793,
      "Ġmot": 1794,
      "Ġusually": 1795,
      "Ġmillion": 1796,
      "etic": 1797,
      "ont": 1798,
      "Ġmov": 1799,
      "As": 1800,
      "Ġcharacter": 1801,
      "isc": 1802,
      "ape": 1803,
      "rate": 1804,
      "most": 1805,
      "Ġresults": 1806,
      "Ġill": 1807,
      "Ġline": 1808,
      "Ġdifficult": 1809,
      "ored": 1810,
      "aster": 1811,
      "Ġestab": 1812,
      "Ġ0": 1813,
      "mit": 1814,
      "asing": 1815,
      "min": 1816,
      "ĠBrit": 1817,
      "ĠWhat": 1818,
      "ĠEar": 1819,
      "iation": 1820,
      "Ġconditions": 1821,
      "ively": 1822,
      "15": 1823,
      "Ġcommunity": 1824,
      "Ġnext": 1825,
      "Ġspecific": 1826,
      "ĠGerm": 1827,
      "idd": 1828,
      "Ġenc": 1829,
      "Ġbegin": 1830,
      "Ġdiscuss": 1831,
      "Ġ'": 1832,
      "Ġrecord": 1833,
      "ruction": 1834,
      "Ġtemper": 1835,
      "ler": 1836,
      "Ġspace": 1837,
      "selves": 1838,
      "ours": 1839,
      "Ġer": 1840,
      "anc": 1841,
      "app": 1842,
      "Ġexperience": 1843,
      "Ġgre": 1844,
      "Ġcreate": 1845,
      "especially": 1846,
      "Ġsimilar": 1847,
      "aim": 1848,
      "Ġnever": 1849,
      "ribut": 1850,
      "Ġwhy": 1851,
      "nal": 1852,
      "Ġspecial": 1853,
      "Ġchanges": 1854,
      "Ġcrit": 1855,
      "Ġhy": 1856,
      "Ġneeds": 1857,
      "There": 1858,
      "Ġdam": 1859,
      "Ġtext": 1860,
      "Ġnecess": 1861,
      "Ġconsum": 1862,
      "Ġfuture": 1863,
      "Ġstrong": 1864,
      "obal": 1865,
      "Ġkind": 1866,
      "Ġleast": 1867,
      "Ġask": 1868,
      "Ġapplic": 1869,
      "ators": 1870,
      "Ġhowever": 1871,
      "oman": 1872,
      "Ġtoget": 1873,
      "Ġtogether": 1874,
      "ane": 1875,
      "Ġbrain": 1876,
      "Ġpast": 1877,
      "aining": 1878,
      "Ġtechnology": 1879,
      "11": 1880,
      "Ġvarious": 1881,
      "Ġparent": 1882,
      "rug": 1883,
      "Ġhigher": 1884,
      "alf": 1885,
      "ique": 1886,
      "for": 1887,
      "Ġterm": 1888,
      "ptoms": 1889,
      "oney": 1890,
      "Ġresearc": 1891,
      "Ġcomplete": 1892,
      "omes": 1893,
      "Ġleft": 1894,
      "ilities": 1895,
      "Ġrespons": 1896,
      "Ġtry": 1897,
      "Ġcolle": 1898,
      "Ġcountries": 1899,
      "Ġacross": 1900,
      "ĠAfric": 1901,
      "Ġenough": 1902,
      "atch": 1903,
      "Ġbecame": 1904,
      "Ġaway": 1905,
      "ued": 1906,
      "Ġhaving": 1907,
      "Ġworking": 1908,
      "ument": 1909,
      "aves": 1910,
      "Ġworks": 1911,
      "aring": 1912,
      "Ġtru": 1913,
      "let": 1914,
      "Ġnet": 1915,
      "lo": 1916,
      "ĠJohn": 1917,
      "by": 1918,
      "Ġside": 1919,
      "Ġgr": 1920,
      "ray": 1921,
      "aces": 1922,
      "thing": 1923,
      "oot": 1924,
      "Ġchem": 1925,
      "ĠEnglish": 1926,
      "Ġespecially": 1927,
      "Ġprim": 1928,
      "ĠWar": 1929,
      "ilt": 1930,
      "Ġcy": 1931,
      "amm": 1932,
      "Ġprofess": 1933,
      "50": 1934,
      "How": 1935,
      "mber": 1936,
      "NA": 1937,
      "Ġcity": 1938,
      "rim": 1939,
      "ae": 1940,
      "Ġfull": 1941,
      "Ġrequire": 1942,
      "Ġcases": 1943,
      "istic": 1944,
      "Ġbusiness": 1945,
      "Ġ198": 1946,
      "Ġnorm": 1947,
      "Ġgeneral": 1948,
      "Ġkey": 1949,
      "duct": 1950,
      "ges": 1951,
      "ipp": 1952,
      "Ġtool": 1953,
      "ires": 1954,
      "Ġknowledge": 1955,
      "itor": 1956,
      "ales": 1957,
      "ĠGo": 1958,
      "aching": 1959,
      "ysis": 1960,
      "port": 1961,
      "Ġfund": 1962,
      "Ġimprove": 1963,
      "ĠNe": 1964,
      "Ġsens": 1965,
      "sw": 1966,
      "lement": 1967,
      "Ġhouse": 1968,
      "Ġplants": 1969,
      "ode": 1970,
      "Ġeffects": 1971,
      "ĠSo": 1972,
      "Ġways": 1973,
      "Ġz": 1974,
      "ley": 1975,
      "Ġstudies": 1976,
      "Ġteam": 1977,
      "200": 1978,
      "ott": 1979,
      "iting": 1980,
      "Ġconsider": 1981,
      "ĠWorld": 1982,
      "Ġreason": 1983,
      "Ġground": 1984,
      "side": 1985,
      "ĠSome": 1986,
      "Ġstory": 1987,
      "Ġrepresent": 1988,
      "unt": 1989,
      "Ġsubject": 1990,
      "Ġrelations": 1991,
      "ference": 1992,
      "Ġgoing": 1993,
      "Ġstep": 1994,
      "ĠIntern": 1995,
      "acy": 1996,
      "Ġur": 1997,
      "ency": 1998,
      "Ġmakes": 1999,
      "Ġwhether": 2000,
      "Ġlower": 2001,
      "Ġinflu": 2002,
      "30": 2003,
      "ready": 2004,
      "ird": 2005,
      "An": 2006,
      "edi": 2007,
      "16": 2008,
      "17": 2009,
      "Ġmind": 2010,
      "Ġevidence": 2011,
      "Ġsum": 2012,
      "Ġtypes": 2013,
      "ung": 2014,
      "Ġprotect": 2015,
      "Ġquestion": 2016,
      "Ġfurther": 2017,
      "aut": 2018,
      "ateg": 2019,
      "Ġce": 2020,
      "ox": 2021,
      "chie": 2022,
      "...": 2023,
      "ĠGen": 2024,
      "For": 2025,
      "hing": 2026,
      "Ġself": 2027,
      "Ġemploy": 2028,
      "Ġeff": 2029,
      "Ġrole": 2030,
      "Ġphysical": 2031,
      "augh": 2032,
      "fer": 2033,
      "St": 2034,
      "Ġpolic": 2035,
      "apt": 2036,
      "Ġprob": 2037,
      "ĠOne": 2038,
      "Ġclose": 2039,
      "Ġ30": 2040,
      "ery": 2041,
      "rated": 2042,
      "Ġseen": 2043,
      "ĠWith": 2044,
      "Ġrather": 2045,
      "Ġbig": 2046,
      "Ġbelow": 2047,
      "Ġloss": 2048,
      "ĠBl": 2049,
      "ĠMar": 2050,
      "Ġstat": 2051,
      "Ġeither": 2052,
      "urity": 2053,
      "ibility": 2054,
      "Ġpatients": 2055,
      "ification": 2056,
      "Ġopt": 2057,
      "Ġaccount": 2058,
      "Ġpred": 2059,
      "Ġscience": 2060,
      "Ġlive": 2061,
      "Ġgroups": 2062,
      "Ġwr": 2063,
      "ĠSoc": 2064,
      "Ġconcer": 2065,
      "Ġgrowth": 2066,
      "etimes": 2067,
      "overed": 2068,
      "ann": 2069,
      "rel": 2070,
      "Ġsymptoms": 2071,
      "ival": 2072,
      "Ġnut": 2073,
      "verage": 2074,
      "Ġoffic": 2075,
      "Ġalready": 2076,
      "atures": 2077,
      "ĠThat": 2078,
      "eds": 2079,
      "Ġword": 2080,
      "Ġsite": 2081,
      "ands": 2082,
      "Ġvalue": 2083,
      "Ġsure": 2084,
      "//": 2085,
      "Ġchall": 2086,
      "Ġparticip": 2087,
      "Ġens": 2088,
      "Ġneg": 2089,
      "Ġ14": 2090,
      "ĠGe": 2091,
      "ĠCal": 2092,
      "Ġdeg": 2093,
      "ites": 2094,
      "Ġactivity": 2095,
      "Ġactivities": 2096,
      "ables": 2097,
      "Ġsun": 2098,
      "ĠAust": 2099,
      "cul": 2100,
      "Ġtoward": 2101,
      "Ġsingle": 2102,
      "Ġresources": 2103,
      "ream": 2104,
      "sych": 2105,
      "oura": 2106,
      "ĠCar": 2107,
      "ĠDr": 2108,
      "iam": 2109,
      "Ġreally": 2110,
      "ĠAm": 2111,
      "Ġtradition": 2112,
      "Ġproducts": 2113,
      "esc": 2114,
      "Ġrange": 2115,
      "Ġdeveloped": 2116,
      "urch": 2117,
      "Ġnational": 2118,
      "Ġindic": 2119,
      "Ġdone": 2120,
      "Ġreturn": 2121,
      "rams": 2122,
      "Ġpotential": 2123,
      "ivil": 2124,
      "Ġphot": 2125,
      "Ġdiet": 2126,
      "osis": 2127,
      "ĠBy": 2128,
      "Ġrecogn": 2129,
      "Ġsent": 2130,
      "Ġbuilding": 2131,
      "ĠNorth": 2132,
      "Ġrate": 2133,
      "Ġrelig": 2134,
      "Ġaccording": 2135,
      "Ġmembers": 2136,
      "yn": 2137,
      "Ġcollect": 2138,
      "Ġtaken": 2139,
      "put": 2140,
      "Ġonce": 2141,
      "Ġclimate": 2142,
      "Ġarticle": 2143,
      "Ġmass": 2144,
      "://": 2145,
      "iol": 2146,
      "right": 2147,
      "Ġwhole": 2148,
      "Ġfall": 2149,
      "Ġquality": 2150,
      "Ġann": 2151,
      "Ġdoct": 2152,
      "Ġmodel": 2153,
      "14": 2154,
      "Ġmedical": 2155,
      "Ġlot": 2156,
      "roll": 2157,
      "13": 2158,
      "Ġfive": 2159,
      "Ġevent": 2160,
      "ĠHealth": 2161,
      "Ġthemselves": 2162,
      "Ġpolitical": 2163,
      "ĠMay": 2164,
      "Ġproduction": 2165,
      "Ġresearchers": 2166,
      "Ġdig": 2167,
      "Ġupon": 2168,
      "Ġdom": 2169,
      "amin": 2170,
      "earch": 2171,
      "ublic": 2172,
      "ches": 2173,
      "Ġmeet": 2174,
      "onst": 2175,
      "Ġcame": 2176,
      "Ġfield": 2177,
      "Ġachie": 2178,
      "af": 2179,
      "):": 2180,
      "ison": 2181,
      "Ġwind": 2182,
      "rict": 2183,
      "bon": 2184,
      "val": 2185,
      "idered": 2186,
      "Ġcreated": 2187,
      "Ġnature": 2188,
      "ournal": 2189,
      "Ġ197": 2190,
      "Ġinit": 2191,
      "ĠSouth": 2192,
      "Ġabs": 2193,
      "âĢ¦": 2194,
      "Ġconcept": 2195,
      "like": 2196,
      "apan": 2197,
      "Ġdetail": 2198,
      "ule": 2199,
      "Ġflu": 2200,
      "Ġsurface": 2201,
      "Ġhold": 2202,
      "Ġhistor": 2203,
      "Ġdrug": 2204,
      "Ġfrequ": 2205,
      "Ġitself": 2206,
      "Ġliving": 2207,
      "ober": 2208,
      "Ġred": 2209,
      "ĠIm": 2210,
      "Ġsitu": 2211,
      "iple": 2212,
      "go": 2213,
      "Ġpaper": 2214,
      "Ġdest": 2215,
      "ER": 2216,
      "Ġcannot": 2217,
      "When": 2218,
      "ĠShe": 2219,
      "Ġreduce": 2220,
      "Ġbat": 2221,
      "Ġissues": 2222,
      "ĠAb": 2223,
      "ips": 2224,
      "fficient": 2225,
      "ĠAmerica": 2226,
      "Ġintrodu": 2227,
      "Ġobserv": 2228,
      "ils": 2229,
      "acc": 2230,
      "Ġsource": 2231,
      "He": 2232,
      "Ġpublished": 2233,
      "ront": 2234,
      "Ġquestions": 2235,
      "fact": 2236,
      "reg": 2237,
      "ety": 2238,
      "Ġwide": 2239,
      "Ġwhite": 2240,
      "Ġlay": 2241,
      "\".": 2242,
      "Ġstates": 2243,
      "Ġthought": 2244,
      "SA": 2245,
      "Ġmodern": 2246,
      "Ġver": 2247,
      "Ġconsidered": 2248,
      "Ġweight": 2249,
      "Ġdoc": 2250,
      "leep": 2251,
      "Ġfail": 2252,
      "Ġtell": 2253,
      "ask": 2254,
      "ĠYork": 2255,
      "Ġ=": 2256,
      "plic": 2257,
      "eter": 2258,
      "ĠDep": 2259,
      "Ġactually": 2260,
      "Ġaddress": 2261,
      "Ġincreased": 2262,
      "ĠAss": 2263,
      "rect": 2264,
      "Ġanimals": 2265,
      "Ġpay": 2266,
      "Ġtot": 2267,
      "Ġalmost": 2268,
      "reme": 2269,
      "ĠMan": 2270,
      "ĠEarth": 2271,
      "enn": 2272,
      "Ġfat": 2273,
      "Ġpressure": 2274,
      "Ġfamil": 2275,
      "Ġweek": 2276,
      "utions": 2277,
      "itud": 2278,
      "illed": 2279,
      "ĠStud": 2280,
      "ney": 2281,
      "sh": 2282,
      "Ġrecomm": 2283,
      "oon": 2284,
      "Ġclaim": 2285,
      "ĠTr": 2286,
      "itary": 2287,
      "epend": 2288,
      "Ġeconomic": 2289,
      "Ġsound": 2290,
      "ĠRep": 2291,
      "Ġsize": 2292,
      "Ġpractice": 2293,
      "Ġrights": 2294,
      "Ġidea": 2295,
      "hib": 2296,
      "Ġstudent": 2297,
      "Ġassociated": 2298,
      "Ġskin": 2299,
      "ĠSy": 2300,
      "Ġcut": 2301,
      "Ġadult": 2302,
      "Ġhalf": 2303,
      "Ġarg": 2304,
      "ging": 2305,
      "____": 2306,
      "ma": 2307,
      "Ġmaint": 2308,
      "Ch": 2309,
      "Ġentire": 2310,
      "aced": 2311,
      "ĠComp": 2312,
      "Ġblack": 2313,
      "artment": 2314,
      "Ġmor": 2315,
      "het": 2316,
      "ened": 2317,
      "Ġrequired": 2318,
      "Ġfri": 2319,
      "Ġtook": 2320,
      "sequ": 2321,
      "ump": 2322,
      "Ġprovides": 2323,
      "Ġsimple": 2324,
      "my": 2325,
      ".)": 2326,
      "org": 2327,
      "aged": 2328,
      "Ġskills": 2329,
      "Ġopportun": 2330,
      "Ġcomplex": 2331,
      "Ġbegan": 2332,
      "Ġneeded": 2333,
      "light": 2334,
      "Ġrelated": 2335,
      "ivity": 2336,
      "Ġsal": 2337,
      "ĠAct": 2338,
      "Ġarch": 2339,
      "Ġparts": 2340,
      "eb": 2341,
      "Ġmicro": 2342,
      "Ġmoney": 2343,
      "lying": 2344,
      "Ġsense": 2345,
      "--": 2346,
      "Ġsuper": 2347,
      "Ġcat": 2348,
      "Ġprote": 2349,
      "Ġglobal": 2350,
      "Ġfish": 2351,
      "Ġ13": 2352,
      "Ġrelationship": 2353,
      "Ġport": 2354,
      "Ġability": 2355,
      "Ġmarket": 2356,
      "pro": 2357,
      "ĠJapan": 2358,
      "Ġdog": 2359,
      "Ġvers": 2360,
      "Ġpriv": 2361,
      "Ġunderstanding": 2362,
      "olic": 2363,
      "ĠHist": 2364,
      "Ġ196": 2365,
      "erve": 2366,
      "Ġpurp": 2367,
      "To": 2368,
      "oll": 2369,
      "Ġquick": 2370,
      "ĠHis": 2371,
      "Ġexerc": 2372,
      "Ġever": 2373,
      "ores": 2374,
      "ĠGu": 2375,
      "cient": 2376,
      "Ġeffective": 2377,
      "Ġgreen": 2378,
      "oses": 2379,
      "ai": 2380,
      "mb": 2381,
      "Al": 2382,
      "Ġsepar": 2383,
      "Ġengine": 2384,
      "Ġmonths": 2385,
      "Ġarr": 2386,
      "Ġapproach": 2387,
      "ush": 2388,
      "ibr": 2389,
      "On": 2390,
      "ese": 2391,
      "Ġcoll": 2392,
      "urs": 2393,
      "Ġmaterials": 2394,
      "Ġcondition": 2395,
      "ĠPe": 2396,
      "rown": 2397,
      "Ġlink": 2398,
      "Ġservices": 2399,
      "Ġstress": 2400,
      "acks": 2401,
      "ĠCanad": 2402,
      "gest": 2403,
      "ply": 2404,
      "ĠState": 2405,
      "Ġnecessary": 2406,
      "ĠX": 2407,
      "ening": 2408,
      "ript": 2409,
      "ĠBritish": 2410,
      "Ġyet": 2411,
      "Ġansw": 2412,
      "abit": 2413,
      "irm": 2414,
      "ze": 2415,
      "Ġmanagement": 2416,
      "Ġregion": 2417,
      "Ġhealthy": 2418,
      "Ġexperien": 2419,
      "rad": 2420,
      "empt": 2421,
      "Ġavoid": 2422,
      "Ġrul": 2423,
      "Ġthroughout": 2424,
      "Ġcomes": 2425,
      "Ġstop": 2426,
      "Ġprinc": 2427,
      "Ġliter": 2428,
      "utes": 2429,
      "Ġge": 2430,
      "Ġcop": 2431,
      "Ġsuff": 2432,
      "Ġheat": 2433,
      "Ġpath": 2434,
      "hold": 2435,
      "Ġhtt": 2436,
      "oph": 2437,
      "bo": 2438,
      "inter": 2439,
      "Ġtherap": 2440,
      "Ġfire": 2441,
      "Ġreact": 2442,
      "Ġ100": 2443,
      "Ġproduce": 2444,
      "ĠPr": 2445,
      "Ġchemical": 2446,
      "Ġpopular": 2447,
      "Ġ|": 2448,
      "eding": 2449,
      "Ġmedic": 2450,
      "estern": 2451,
      "uel": 2452,
      "Ġstructure": 2453,
      "Wh": 2454,
      "Ġcr": 2455,
      "Ġparents": 2456,
      "aging": 2457,
      "erous": 2458,
      "usion": 2459,
      "Ġregard": 2460,
      "Ġcomputer": 2461,
      "based": 2462,
      "ederal": 2463,
      "Ġfarm": 2464,
      "abor": 2465,
      "ences": 2466,
      "izing": 2467,
      "iddle": 2468,
      "Ġsafe": 2469,
      "Ġfactors": 2470,
      "Ġ50": 2471,
      "ume": 2472,
      "ĠCont": 2473,
      "Ġsoft": 2474,
      "Ġsix": 2475,
      "Ġprevious": 2476,
      "Ġsubst": 2477,
      "ections": 2478,
      "Ġoil": 2479,
      "Ġmedia": 2480,
      "Ġanalysis": 2481,
      "Ġemer": 2482,
      "yl": 2483,
      "chan": 2484,
      "igure": 2485,
      "Ġassess": 2486,
      "Ġincreasing": 2487,
      "oes": 2488,
      "Ġrecent": 2489,
      "rences": 2490,
      "ĠCo": 2491,
      "Ġreading": 2492,
      "Ġsex": 2493,
      "ene": 2494,
      "ister": 2495,
      "vere": 2496,
      "pid": 2497,
      "ensive": 2498,
      "Ġsociety": 2499,
      "Ġpersonal": 2500,
      "uck": 2501,
      "ising": 2502,
      "Ġgas": 2503,
      "Ġconc": 2504,
      "Ġsurv": 2505,
      "ES": 2506,
      "Ġconduct": 2507,
      "Ã©": 2508,
      "ccording": 2509,
      "Ġshows": 2510,
      "ows": 2511,
      "Ġjob": 2512,
      "ĠAfter": 2513,
      "Ġste": 2514,
      "Ġprovided": 2515,
      "ĠAustral": 2516,
      "Ġ25": 2517,
      "Ġrepl": 2518,
      "Ġut": 2519,
      "Ġbuilt": 2520,
      "Ġservice": 2521,
      "Ġmusic": 2522,
      "Ġpattern": 2523,
      "iction": 2524,
      "Ġmeasure": 2525,
      "Ġlonger": 2526,
      "Ġinteract": 2527,
      "You": 2528,
      "Ġtar": 2529,
      "Ġbar": 2530,
      "Ġast": 2531,
      "Ġtaking": 2532,
      "Ġsam": 2533,
      "Ġthing": 2534,
      "Ġheav": 2535,
      "ĠII": 2536,
      "Ġposition": 2537,
      "Ġmatter": 2538,
      "Ġhours": 2539,
      "Ġaction": 2540,
      "Ġwriting": 2541,
      "minist": 2542,
      "Ġtalk": 2543,
      "ched": 2544,
      "ĠInstit": 2545,
      "ĠEm": 2546,
      "Ġaccept": 2547,
      "ronic": 2548,
      "wh": 2549,
      "Ġtrue": 2550,
      "Ġterms": 2551,
      "Ġculture": 2552,
      "lor": 2553,
      "Ġbur": 2554,
      "Ġla": 2555,
      "Ġoriginal": 2556,
      "istance": 2557,
      "Ġcaused": 2558,
      "order": 2559,
      "lands": 2560,
      "abet": 2561,
      "hood": 2562,
      "Ġindustry": 2563,
      "Ġtravel": 2564,
      "fully": 2565,
      "Ġtotal": 2566,
      "Ġindividuals": 2567,
      "ulations": 2568,
      "Ġetc": 2569,
      "Ġrev": 2570,
      "dom": 2571,
      "rought": 2572,
      "reng": 2573,
      "Ġdeb": 2574,
      "inary": 2575,
      "Ġ11": 2576,
      "ucle": 2577,
      "mon": 2578,
      "Ġcolor": 2579,
      "Ġple": 2580,
      "Ġexperim": 2581,
      "ĠJew": 2582,
      "Ġbring": 2583,
      "Ġenvironmental": 2584,
      "aily": 2585,
      "Ġschools": 2586,
      "yle": 2587,
      "onse": 2588,
      "adem": 2589,
      "Ġmeaning": 2590,
      "Ġbehavior": 2591,
      "Ġonline": 2592,
      "aries": 2593,
      "ĠKing": 2594,
      "Ġtraining": 2595,
      "Ġearth": 2596,
      "Ġshown": 2597,
      "Ġsoil": 2598,
      "Ġtemperature": 2599,
      "vey": 2600,
      "Ġpage": 2601,
      "Ġbreak": 2602,
      "Ġcontact": 2603,
      "ĠResearch": 2604,
      "Ġscientists": 2605,
      "Ġlove": 2606,
      "Ġcontent": 2607,
      "Ġslow": 2608,
      "rench": 2609,
      "Ġincludes": 2610,
      "umb": 2611,
      "uge": 2612,
      "lt": 2613,
      "Ġcheck": 2614,
      "Ġrelative": 2615,
      "Ġexc": 2616,
      "Ġlives": 2617,
      "Ġsleep": 2618,
      "Ġsometimes": 2619,
      "ns": 2620,
      "ĠWhile": 2621,
      "Ġaverage": 2622,
      "ricult": 2623,
      "Ġcontain": 2624,
      "Ġthreat": 2625,
      "icles": 2626,
      "Ġsat": 2627,
      "Ġeat": 2628,
      "asc": 2629,
      "Ġspread": 2630,
      "Ġdesigned": 2631,
      "ĠPres": 2632,
      "Ġprograms": 2633,
      "anced": 2634,
      "imately": 2635,
      "lex": 2636,
      "eration": 2637,
      "Ġinj": 2638,
      "osition": 2639,
      "ĠJes": 2640,
      "ĠNo": 2641,
      "aff": 2642,
      "Ġcompany": 2643,
      "Ġled": 2644,
      "Ġeasy": 2645,
      "atives": 2646,
      "Ġdiagn": 2647,
      "aving": 2648,
      "Ġsimply": 2649,
      "amed": 2650,
      "ius": 2651,
      "Ġemb": 2652,
      "Ġviol": 2653,
      "Ġ194": 2654,
      "Ġstandard": 2655,
      "duc": 2656,
      "arily": 2657,
      "Ġwritten": 2658,
      "Ġmethods": 2659,
      "Ġvariety": 2660,
      "Ġvari": 2661,
      "Ġgreater": 2662,
      "ades": 2663,
      "Ġbelieve": 2664,
      "ĠSu": 2665,
      "Ġlif": 2666,
      "ĠPar": 2667,
      "Ġpositive": 2668,
      "Ġwild": 2669,
      "ropri": 2670,
      "Ġcauses": 2671,
      "aches": 2672,
      "Ġbenefits": 2673,
      "Ġpict": 2674,
      "Ġmovement": 2675,
      "ban": 2676,
      "gar": 2677,
      "ĠMin": 2678,
      "itation": 2679,
      "Ġnormal": 2680,
      "ĠSchool": 2681,
      "ĠPer": 2682,
      "rior": 2683,
      "ervation": 2684,
      "Ġrespect": 2685,
      "ĠSec": 2686,
      "Ġfru": 2687,
      "Ġreported": 2688,
      "Ġsaf": 2689,
      "new": 2690,
      "Ġorigin": 2691,
      "Ġissue": 2692,
      "Ġregular": 2693,
      "Ġlate": 2694,
      "bor": 2695,
      "Ġdeep": 2696,
      "Ġcompan": 2697,
      "Ġvide": 2698,
      "ID": 2699,
      "Ġinvolved": 2700,
      "But": 2701,
      "ief": 2702,
      "ls": 2703,
      "rie": 2704,
      "istics": 2705,
      "rand": 2706,
      "Ġforms": 2707,
      "Ġuses": 2708,
      "astic": 2709,
      "Ġcamp": 2710,
      "Ġreview": 2711,
      "know": 2712,
      "lies": 2713,
      "Ġprec": 2714,
      "Ġattempt": 2715,
      "oor": 2716,
      "ĠÂ": 2717,
      "ops": 2718,
      "Ġtarget": 2719,
      "Ġimage": 2720,
      "hest": 2721,
      "AT": 2722,
      "aling": 2723,
      "Ġsqu": 2724,
      "Ġstreng": 2725,
      "Ġevents": 2726,
      "ington": 2727,
      "Ġshare": 2728,
      "Ġfem": 2729,
      "ĠEd": 2730,
      "Ġclean": 2731,
      "imum": 2732,
      "Ġencoura": 2733,
      "ĠMe": 2734,
      "Ġtax": 2735,
      "Ġnight": 2736,
      "Ġpsych": 2737,
      "rast": 2738,
      "Ġdoing": 2739,
      "Ġoutside": 2740,
      "ĠCount": 2741,
      "Ġparticularly": 2742,
      "Ġsources": 2743,
      "Ġap": 2744,
      "Ġmach": 2745,
      "ribution": 2746,
      "Ġbasic": 2747,
      "Ġnetwork": 2748,
      "Ġrefer": 2749,
      "Ġ/": 2750,
      "Ġdraw": 2751,
      "ĠScience": 2752,
      "Ġlog": 2753,
      "Ġvisit": 2754,
      "ender": 2755,
      "Ġgenerally": 2756,
      "Ġextreme": 2757,
      "Ġbr": 2758,
      "Ġlat": 2759,
      "Ġinternational": 2760,
      "Ġideas": 2761,
      "Ġbacter": 2762,
      "Ġimplement": 2763,
      "Ġidentify": 2764,
      "Ġago": 2765,
      "ĠChina": 2766,
      "Ġlack": 2767,
      "ĠRuss": 2768,
      "Ġdamage": 2769,
      "uary": 2770,
      "ners": 2771,
      "Ġsafety": 2772,
      "verse": 2773,
      "ĠWill": 2774,
      "ials": 2775,
      "Ġpoor": 2776,
      "Ġseries": 2777,
      "Ġpoll": 2778,
      "ufact": 2779,
      "Ġ--": 2780,
      "Ġaff": 2781,
      "Ġproduced": 2782,
      "ana": 2783,
      "ĠCenter": 2784,
      "ached": 2785,
      "ĠJu": 2786,
      "Ġremov": 2787,
      "Ġgrowing": 2788,
      "Ġmechan": 2789,
      "Ġteachers": 2790,
      "Ġfoods": 2791,
      "Ġserious": 2792,
      "Ġface": 2793,
      "Ġprobably": 2794,
      "ength": 2795,
      "ises": 2796,
      "ĠJan": 2797,
      "Ġsou": 2798,
      "22": 2799,
      "oly": 2800,
      "amb": 2801,
      "ĠPart": 2802,
      "uth": 2803,
      "ror": 2804,
      "Ġcarbon": 2805,
      "Ġharm": 2806,
      "Ġdemonst": 2807,
      "Ġforce": 2808,
      "Ġdeveloping": 2809,
      "Ġcoun": 2810,
      "Ġattention": 2811,
      "Ġinteg": 2812,
      "Ġconsist": 2813,
      "Ġhelps": 2814,
      "isions": 2815,
      "ided": 2816,
      "rial": 2817,
      "Ġtheory": 2818,
      "ĠHar": 2819,
      "cies": 2820,
      "Ġcross": 2821,
      "inks": 2822,
      "Ġcompet": 2823,
      "Ġdou": 2824,
      "Ġsea": 2825,
      "Ġcivil": 2826,
      "itude": 2827,
      "Ġcommit": 2828,
      "Ġexpress": 2829,
      "Ġforest": 2830,
      "oles": 2831,
      "Ġresponse": 2832,
      "Ġfa": 2833,
      "Ġindepend": 2834,
      "erg": 2835,
      "Ġnumbers": 2836,
      "Ġmother": 2837,
      "Ġcolon": 2838,
      "vention": 2839,
      "Ġcust": 2840,
      "elling": 2841,
      "Ġelectric": 2842,
      "Ġcontinue": 2843,
      "Ġselect": 2844,
      "haps": 2845,
      "Ġmess": 2846,
      "Ġprep": 2847,
      "Ġcit": 2848,
      "ĠGerman": 2849,
      "ĠFrench": 2850,
      "Ġtown": 2851,
      "where": 2852,
      "ecause": 2853,
      "overy": 2854,
      "ctions": 2855,
      "Ġbirth": 2856,
      "cil": 2857,
      "Ġensure": 2858,
      "Ġfeet": 2859,
      "Ġdefin": 2860,
      "iforn": 2861,
      "Ġthus": 2862,
      "25": 2863,
      "rs": 2864,
      "Ġbooks": 2865,
      "useum": 2866,
      "ĠQu": 2867,
      "Ġwall": 2868,
      "ming": 2869,
      "Ġinstead": 2870,
      "Ġestablished": 2871,
      "Ġconcent": 2872,
      "osure": 2873,
      "Ġspir": 2874,
      "ground": 2875,
      "ties": 2876,
      "Ġincluded": 2877,
      "Ġwood": 2878,
      "ĠBo": 2879,
      "ĠAug": 2880,
      "Ġattack": 2881,
      "Ġwebs": 2882,
      "osing": 2883,
      "Ġkids": 2884,
      "Ġscientific": 2885,
      "Ġ24": 2886,
      "Ġtherefore": 2887,
      "Ġanimal": 2888,
      "AR": 2889,
      "ĠMany": 2890,
      "Ġgetting": 2891,
      "ille": 2892,
      "Ġir": 2893,
      "Ġcompon": 2894,
      "ying": 2895,
      "Ġtakes": 2896,
      "room": 2897,
      "Ġemot": 2898,
      "Ġ2012": 2899,
      "Ġpolicy": 2900,
      "Ġaware": 2901,
      "rew": 2902,
      "Ġsust": 2903,
      "Ġinstit": 2904,
      "Ġvirus": 2905,
      "ights": 2906,
      "Ġveget": 2907,
      "Ġfront": 2908,
      "ĠMore": 2909,
      "Ġheld": 2910,
      "Ġec": 2911,
      "Ġmilitary": 2912,
      "ĠAc": 2913,
      "ads": 2914,
      "Ġbal": 2915,
      "Ġtree": 2916,
      "alu": 2917,
      "Ġinvestig": 2918,
      "raft": 2919,
      "Ġestim": 2920,
      "ĠDepartment": 2921,
      "ĠEuropean": 2922,
      "Ġthird": 2923,
      "ĠCons": 2924,
      "cell": 2925,
      "Ġdang": 2926,
      "Ġdaily": 2927,
      "hel": 2928,
      "Ġdoesn": 2929,
      "Ġdiv": 2930,
      "ĠIndia": 2931,
      "ĠInstitute": 2932,
      "asons": 2933,
      "fect": 2934,
      "Ġful": 2935,
      "eed": 2936,
      "Ġpoints": 2937,
      "son": 2938,
      "Ġsolar": 2939,
      "Ġwarm": 2940,
      "erson": 2941,
      "ifornia": 2942,
      "Ġsomeone": 2943,
      "Ġdispl": 2944,
      "ems": 2945,
      "Ġlooking": 2946,
      "Ġcover": 2947,
      "IN": 2948,
      "Ġstarted": 2949,
      "Ġhyd": 2950,
      "ĠInt": 2951,
      "Ġleaders": 2952,
      "pril": 2953,
      "Ġchalleng": 2954,
      "Ġsecurity": 2955,
      "Ġprimary": 2956,
      "Ġreflect": 2957,
      "Ġox": 2958,
      "Ġvit": 2959,
      "abetes": 2960,
      "Ġadded": 2961,
      "Ġseems": 2962,
      "Ġdocument": 2963,
      "Ġmental": 2964,
      "ON": 2965,
      "Ġthous": 2966,
      "Ġquite": 2967,
      "Ġfamilies": 2968,
      "Ġfav": 2969,
      "hern": 2970,
      "issions": 2971,
      "ĠFran": 2972,
      "inese": 2973,
      "ĠApp": 2974,
      "Ġ2010": 2975,
      "iot": 2976,
      "set": 2977,
      "ĠMarch": 2978,
      "Ġcorrect": 2979,
      "na": 2980,
      "ĠEduc": 2981,
      "Ġmagn": 2982,
      "Ġdetermine": 2983,
      "Ġimmedi": 2984,
      "Ġalthough": 2985,
      "ĠDo": 2986,
      "Ġ40": 2987,
      "ilos": 2988,
      "Ġdifference": 2989,
      "Ġpatient": 2990,
      "Ġbab": 2991,
      "Ġhumans": 2992,
      "ension": 2993,
      "undred": 2994,
      "ography": 2995,
      "ha": 2996,
      "ĠOct": 2997,
      "Ġlabor": 2998,
      "Ġtraditional": 2999,
      "IS": 3000,
      "thern": 3001,
      "uman": 3002,
      "elt": 3003,
      "Ġtur": 3004,
      "ĠChristian": 3005,
      "Ġcompared": 3006,
      "Ġeye": 3007,
      "Ġdoctor": 3008,
      "ĠAg": 3009,
      "Ġsold": 3010,
      "Ġmanufact": 3011,
      "ĠMost": 3012,
      "Ġeasily": 3013,
      "Ġprint": 3014,
      "ridge": 3015,
      "Ġperformance": 3016,
      "Ġessential": 3017,
      "ounds": 3018,
      "ino": 3019,
      "Ġinside": 3020,
      "Ġreve": 3021,
      "Ġcapt": 3022,
      "www": 3023,
      "Ġtrees": 3024,
      "lied": 3025,
      "Ġappropri": 3026,
      "Ġcompanies": 3027,
      "Ġcommunities": 3028,
      "âĢ¢": 3029,
      "ift": 3030,
      "Ġunique": 3031,
      "coh": 3032,
      "Ġadditional": 3033,
      "ĠArt": 3034,
      "Ġwhose": 3035,
      "ancy": 3036,
      "iency": 3037,
      "Ġtri": 3038,
      "ellow": 3039,
      "Ġdiseases": 3040,
      "Ġlarger": 3041,
      "Ġnation": 3042,
      "Ġdirectly": 3043,
      "den": 3044,
      "ĠChar": 3045,
      "AN": 3046,
      "Ġallows": 3047,
      "Ġspeak": 3048,
      "Ġbeginning": 3049,
      "ĠCalifornia": 3050,
      "Ġnegative": 3051,
      "cean": 3052,
      "ĠJune": 3053,
      "rig": 3054,
      "Ġ2011": 3055,
      "Ġprogress": 3056,
      "ĠInternational": 3057,
      "Ġwent": 3058,
      "Ġtools": 3059,
      "ĠEl": 3060,
      "ĠIndian": 3061,
      "iter": 3062,
      "Ġbit": 3063,
      "Ġnucle": 3064,
      "Ġachieve": 3065,
      "Ġdecre": 3066,
      "orthern": 3067,
      "Ġbehind": 3068,
      "orks": 3069,
      "Ġhabit": 3070,
      "Ġaud": 3071,
      "Ġdry": 3072,
      "Ġthinking": 3073,
      "Ġdrink": 3074,
      "Ġhot": 3075,
      "uries": 3076,
      "Ġwalk": 3077,
      "Ġoffer": 3078,
      "yond": 3079,
      "omet": 3080,
      "Ġhttp": 3081,
      "Ġsus": 3082,
      "Ġcapital": 3083,
      "gency": 3084,
      "21": 3085,
      "Ġquickly": 3086,
      "Ġstri": 3087,
      "Ġtiss": 3088,
      "Ġelements": 3089,
      "Ġactive": 3090,
      "Ġfoot": 3091,
      "leb": 3092,
      "Ġhighly": 3093,
      "One": 3094,
      "rition": 3095,
      "ĠAnt": 3096,
      "Ġx": 3097,
      "ĠSte": 3098,
      "Ġleading": 3099,
      "Ġextra": 3100,
      "Ġmultiple": 3101,
      "Ġaspect": 3102,
      "oke": 3103,
      "joy": 3104,
      "Ġaim": 3105,
      "Ġprotein": 3106,
      "Ġaltern": 3107,
      "ancial": 3108,
      "Ġcentral": 3109,
      "Ġnorth": 3110,
      "ĠChinese": 3111,
      "olar": 3112,
      "formation": 3113,
      "rance": 3114,
      "Ġsoon": 3115,
      "mar": 3116,
      "ĠCor": 3117,
      "ĠSept": 3118,
      "OR": 3119,
      "oming": 3120,
      "Ġhost": 3121,
      "ĠWest": 3122,
      "ĠGl": 3123,
      "ĠJesus": 3124,
      "gn": 3125,
      "Ġtend": 3126,
      "Ġancient": 3127,
      "ĠGree": 3128,
      "Ġmount": 3129,
      "ĠHer": 3130,
      "Ġsevere": 3131,
      "Ġinfection": 3132,
      "pe": 3133,
      "Ġfram": 3134,
      "Ġexercise": 3135,
      "Ġsupply": 3136,
      "Ġi": 3137,
      "ulate": 3138,
      "lation": 3139,
      "Ġbroad": 3140,
      "ĠRet": 3141,
      "ĠPre": 3142,
      "Ġcritical": 3143,
      "Ġbad": 3144,
      "aly": 3145,
      "see": 3146,
      "ĠRec": 3147,
      "Ġlost": 3148,
      "Ġprior": 3149,
      "Ġcontains": 3150,
      "ĠOther": 3151,
      "Ġevalu": 3152,
      "water": 3153,
      "Ġacid": 3154,
      "Ġreceived": 3155,
      "term": 3156,
      "hens": 3157,
      "Ġdescribed": 3158,
      "Ġlimited": 3159,
      "ĠSm": 3160,
      "Ġwaste": 3161,
      "Ġanswer": 3162,
      "23": 3163,
      "Ġcred": 3164,
      "Ġhor": 3165,
      "Ġinterp": 3166,
      "IC": 3167,
      "ĠHistory": 3168,
      "Ġsection": 3169,
      "Ġwrite": 3170,
      "ription": 3171,
      "Ġgard": 3172,
      "ĠDav": 3173,
      "Ġbrought": 3174,
      "Ġvalues": 3175,
      "Ġsil": 3176,
      "itect": 3177,
      "ching": 3178,
      "ĠMus": 3179,
      "Ġelse": 3180,
      "Ġreligious": 3181,
      "iers": 3182,
      "isms": 3183,
      "uk": 3184,
      "Ġjud": 3185,
      "ĠApril": 3186,
      "rote": 3187,
      "ĠAlthough": 3188,
      "Ġprotection": 3189,
      "Ġproced": 3190,
      "Ġfeed": 3191,
      "ields": 3192,
      "Ġeth": 3193,
      "ĠPress": 3194,
      "Ġhundred": 3195,
      "Ġdecl": 3196,
      "Ġcapac": 3197,
      "eal": 3198,
      "lier": 3199,
      "ĠAfrican": 3200,
      "Ġclin": 3201,
      "ĠBar": 3202,
      "Ġsearch": 3203,
      "Ġdecision": 3204,
      "Ġinn": 3205,
      "ĠJuly": 3206,
      "Ġexpect": 3207,
      "ĠYour": 3208,
      "Ġhar": 3209,
      "ĠEngland": 3210,
      "Ġworkers": 3211,
      "Ġcard": 3212,
      "lection": 3213,
      "iques": 3214,
      "Ġtowards": 3215,
      "Ġones": 3216,
      "Ġmom": 3217,
      "Ġuseful": 3218,
      "Ġdark": 3219,
      "Ġpurpose": 3220,
      "Ġremains": 3221,
      "Ġcontribut": 3222,
      "Ġadminist": 3223,
      "Ġbase": 3224,
      "ĠNot": 3225,
      "ĠAugust": 3226,
      "Ġprivate": 3227,
      "istry": 3228,
      "Ġnews": 3229,
      "lim": 3230,
      "ĠChild": 3231,
      "Ġagree": 3232,
      "Ġfast": 3233,
      "rogen": 3234,
      "Ġobjects": 3235,
      "cohol": 3236,
      "anks": 3237,
      "ĠAfrica": 3238,
      "vant": 3239,
      "ĠTra": 3240,
      "rates": 3241,
      "Ġnearly": 3242,
      "ĠSch": 3243,
      "Ġlines": 3244,
      "used": 3245,
      "orders": 3246,
      "Ġapplication": 3247,
      "40": 3248,
      "Ġminutes": 3249,
      "oring": 3250,
      "att": 3251,
      "Ġobt": 3252,
      "cks": 3253,
      "ĠMon": 3254,
      "ondon": 3255,
      "'re": 3256,
      "Ġtransport": 3257,
      "Ġanaly": 3258,
      "co": 3259,
      "Ġgot": 3260,
      "Ġnar": 3261,
      "Ġvideo": 3262,
      "edia": 3263,
      "Ġstay": 3264,
      "Ġinfluence": 3265,
      "lin": 3266,
      "ĠGovern": 3267,
      "ovember": 3268,
      "Ġproperty": 3269,
      "omb": 3270,
      "inct": 3271,
      "Ġteaching": 3272,
      "mission": 3273,
      "And": 3274,
      "arian": 3275,
      "wise": 3276,
      "Ġstrateg": 3277,
      "So": 3278,
      "80": 3279,
      "âĢĿ.": 3280,
      "Ġlargest": 3281,
      "Ġsoftware": 3282,
      "ulated": 3283,
      "Ġjo": 3284,
      "Ġestablish": 3285,
      "Ġexact": 3286,
      "bol": 3287,
      "Ġadop": 3288,
      "Ġremain": 3289,
      "Ġadults": 3290,
      "ĠWash": 3291,
      "Ġstra": 3292,
      "bit": 3293,
      "Ġenjoy": 3294,
      "ĠTw": 3295,
      "Ġ,": 3296,
      "Ġhous": 3297,
      "come": 3298,
      "sect": 3299,
      "Ġlaws": 3300,
      "Ġcustom": 3301,
      "Ġlocated": 3302,
      "60": 3303,
      "Ġseason": 3304,
      "ĠKe": 3305,
      "Ġmill": 3306,
      "Ġrates": 3307,
      "Ġplaces": 3308,
      "ĠOf": 3309,
      "Ġsouth": 3310,
      "Ġfederal": 3311,
      "cember": 3312,
      "Ġlength": 3313,
      "Ġaccur": 3314,
      "Ġleaves": 3315,
      "uous": 3316,
      "Ġpack": 3317,
      "ologies": 3318,
      "Ġhands": 3319,
      "Ġsn": 3320,
      "life": 3321,
      "Ġborn": 3322,
      "Ġgame": 3323,
      "Ġquant": 3324,
      "Ġimag": 3325,
      "Ġweeks": 3326,
      "aid": 3327,
      "izations": 3328,
      "Ġtold": 3329,
      "estic": 3330,
      "Ġbasis": 3331,
      "ĠCanada": 3332,
      "ira": 3333,
      "Ġsituation": 3334,
      "Ġbeaut": 3335,
      "IV": 3336,
      "Ġexcept": 3337,
      "Ġfeatures": 3338,
      "fort": 3339,
      "Ġfight": 3340,
      "ĠSw": 3341,
      "Ġ21": 3342,
      "Ġcarry": 3343,
      "alled": 3344,
      "Ġmiles": 3345,
      "Ġder": 3346,
      "rael": 3347,
      "Ġ2008": 3348,
      "Ġhimself": 3349,
      "Ġgoal": 3350,
      "Ġep": 3351,
      "Ġbecomes": 3352,
      "iber": 3353,
      "ster": 3354,
      "aul": 3355,
      "Ġbott": 3356,
      "Ġdied": 3357,
      "Ġdisp": 3358,
      "Ġrare": 3359,
      "Ġimages": 3360,
      "Ġtests": 3361,
      "pper": 3362,
      "Ġeyes": 3363,
      "entially": 3364,
      "omy": 3365,
      "ĠMy": 3366,
      "Ġblock": 3367,
      "ĠReg": 3368,
      "ĠFirst": 3369,
      "Ġcoast": 3370,
      "anish": 3371,
      "ĠServ": 3372,
      "Ġfather": 3373,
      "ĠUs": 3374,
      "EN": 3375,
      "Ġdead": 3376,
      "Ġcommand": 3377,
      "Ġagricult": 3378,
      "alt": 3379,
      "ĠPresident": 3380,
      "Ġsummer": 3381,
      "rag": 3382,
      "iece": 3383,
      "Ġang": 3384,
      "Ġking": 3385,
      "Ġreach": 3386,
      "odies": 3387,
      "Ġwa": 3388,
      "ĠProg": 3389,
      "Ġsurround": 3390,
      "Ġefforts": 3391,
      "equ": 3392,
      "Ġcenter": 3393,
      "Ġshall": 3394,
      "king": 3395,
      "ceed": 3396,
      "itis": 3397,
      "Ġvict": 3398,
      "ĠMc": 3399,
      "Ġrequires": 3400,
      "iar": 3401,
      "Ġcool": 3402,
      "Ġstru": 3403,
      "ĠHere": 3404,
      "iles": 3405,
      "Ġ2009": 3406,
      "Ġcitiz": 3407,
      "idents": 3408,
      "Ġcou": 3409,
      "ĠAssoci": 3410,
      "Ġdevices": 3411,
      "Ġvacc": 3412,
      "atur": 3413,
      "Ġcontext": 3414,
      "Ġimportance": 3415,
      "ibrary": 3416,
      "Ġsolution": 3417,
      "gypt": 3418,
      "199": 3419,
      "ford": 3420,
      "vest": 3421,
      "Ġrapid": 3422,
      "Ġsites": 3423,
      "Ġcam": 3424,
      "Ġtrade": 3425,
      "Ġmole": 3426,
      "Ġsaw": 3427,
      "sec": 3428,
      "Ġmid": 3429,
      "Ġmention": 3430,
      "Ġbul": 3431,
      "Ġegg": 3432,
      "ĠRiver": 3433,
      "Ġsustain": 3434,
      "uments": 3435,
      "Ġnothing": 3436,
      "Ġdemand": 3437,
      "Ġcosts": 3438,
      "Ġice": 3439,
      "cles": 3440,
      "Ġfit": 3441,
      "Ġspirit": 3442,
      "24": 3443,
      "Ġ2013": 3444,
      "Ġspeed": 3445,
      "ĠOctober": 3446,
      "Ġeverything": 3447,
      "year": 3448,
      "Ġmonitor": 3449,
      "Ġeating": 3450,
      "Ġrespond": 3451,
      "Ġdevice": 3452,
      "ĠWilliam": 3453,
      "ding": 3454,
      "ĠCong": 3455,
      "inate": 3456,
      "resh": 3457,
      "At": 3458,
      "Ġlegal": 3459,
      "Ġtit": 3460,
      "ĠCO": 3461,
      "Ġult": 3462,
      "Ġresponsible": 3463,
      "Ġtable": 3464,
      "inated": 3465,
      "Ġcommunication": 3466,
      "aste": 3467,
      "Ġbeyond": 3468,
      "Ġ2007": 3469,
      "Ġconstit": 3470,
      "Ġbacteria": 3471,
      "Ġfile": 3472,
      "oud": 3473,
      "Ġconstruction": 3474,
      "Ġtesting": 3475,
      "ĠCity": 3476,
      "Ġfinancial": 3477,
      "Ġappropriate": 3478,
      "ony": 3479,
      "Ġanything": 3480,
      ");": 3481,
      "Ġcontroll": 3482,
      "Ġrecently": 3483,
      "Ġexamples": 3484,
      "ĠEducation": 3485,
      "Ġson": 3486,
      "ama": 3487,
      "IT": 3488,
      "ĠCounty": 3489,
      "ĠJanuary": 3490,
      "uit": 3491,
      "Ġforces": 3492,
      "ĠAmericans": 3493,
      "ĠWashington": 3494,
      "Ġgives": 3495,
      "Ġbenefit": 3496,
      "ĠPol": 3497,
      "Ġteacher": 3498,
      "Ġmis": 3499,
      "Ġadj": 3500,
      "ĠFrom": 3501,
      "Ġtypically": 3502,
      "Ġmemory": 3503,
      "Ġcreating": 3504,
      "ipment": 3505,
      "Ġpan": 3506,
      "Ġprojects": 3507,
      "ica": 3508,
      "ixed": 3509,
      "Ġhope": 3510,
      "aught": 3511,
      "apter": 3512,
      "Ġcommunic": 3513,
      "Ġtherapy": 3514,
      "med": 3515,
      "Ġ193": 3516,
      "ĠJournal": 3517,
      "ĠSeptember": 3518,
      "ype": 3519,
      "Ġanti": 3520,
      "Ġwebsite": 3521,
      "Ġcrop": 3522,
      "Ġfinal": 3523,
      "Ġasked": 3524,
      "Ġneigh": 3525,
      "Ġtechniques": 3526,
      "rab": 3527,
      "Ġfollowed": 3528,
      "Ġdiabetes": 3529,
      "edom": 3530,
      "By": 3531,
      "Ġcontinued": 3532,
      "Ġformer": 3533,
      "iff": 3534,
      "ĠDay": 3535,
      "ĠNovember": 3536,
      "Ġsett": 3537,
      "Ġguid": 3538,
      "ky": 3539,
      "ĠGreat": 3540,
      "Ġapplications": 3541,
      "head": 3542,
      "ipl": 3543,
      "ĠSan": 3544,
      "ĠLondon": 3545,
      "Ġgradu": 3546,
      "ĠArch": 3547,
      "Ġten": 3548,
      "Ġprocesses": 3549,
      "Ġcultural": 3550,
      "lam": 3551,
      "AS": 3552,
      "Ġwrote": 3553,
      "eg": 3554,
      "ĠFeb": 3555,
      "izes": 3556,
      "Ġmiddle": 3557,
      "Ġund": 3558,
      "Ġceleb": 3559,
      "ĠIsrael": 3560,
      "ham": 3561,
      "ios": 3562,
      "Ġadapt": 3563,
      "Ġeconomy": 3564,
      "Ġautom": 3565,
      "Ġeffort": 3566,
      "Ġexpected": 3567,
      "Ġsugar": 3568,
      "ĠRoman": 3569,
      "Ġdepend": 3570,
      "ests": 3571,
      "ĠSociety": 3572,
      "rees": 3573,
      "Ġreasons": 3574,
      "back": 3575,
      "imal": 3576,
      "ĠDecember": 3577,
      "Ġbillion": 3578,
      "Ġfriends": 3579,
      "Ġfuel": 3580,
      "Ġveh": 3581,
      "Ġpractices": 3582,
      "Ġunc": 3583,
      "ĠPark": 3584,
      "These": 3585,
      "enge": 3586,
      "Ġolder": 3587,
      "Ġdate": 3588,
      "Ġsuccessful": 3589,
      "ĠIS": 3590,
      "Ġcompletely": 3591,
      "Ġrain": 3592,
      "oe": 3593,
      "Ġcold": 3594,
      "ĠDNA": 3595,
      "Ġpen": 3596,
      "Ġinsp": 3597,
      "Ġpregn": 3598,
      "ĠEgypt": 3599,
      "mosp": 3600,
      "Ġchoose": 3601,
      "Ġrules": 3602,
      "AC": 3603,
      "Ġweb": 3604,
      "Ġcourt": 3605,
      "rieved": 3606,
      "Ġbeg": 3607,
      "illing": 3608,
      "Ġnamed": 3609,
      "ought": 3610,
      "iples": 3611,
      "Ġhyp": 3612,
      "Ġsmaller": 3613,
      "Ġadvant": 3614,
      "Ġstage": 3615,
      "aur": 3616,
      "airs": 3617,
      "Ġapprox": 3618,
      "Ġlocation": 3619,
      "Ġproviding": 3620,
      "Ġpet": 3621,
      "Ġdiscovered": 3622,
      "Ġfear": 3623,
      "ĠEven": 3624,
      "ocol": 3625,
      "ĠDevelop": 3626,
      "Ġwoman": 3627,
      "ĠChurch": 3628,
      "Ġreceive": 3629,
      "Ġ23": 3630,
      "Ġuser": 3631,
      "ogen": 3632,
      "EC": 3633,
      "Ġaffected": 3634,
      "Ġinstru": 3635,
      "Ġtrying": 3636,
      "Ġgenetic": 3637,
      "Ġgoes": 3638,
      "Ġinteresting": 3639,
      "Ġscreen": 3640,
      "Ġmodels": 3641,
      "Ġplanet": 3642,
      "Ġcurrently": 3643,
      "udd": 3644,
      "Ġmaintain": 3645,
      "ĠLaw": 3646,
      "ĠVal": 3647,
      "aters": 3648,
      "Ġalone": 3649,
      "Ġconsequ": 3650,
      "Ġgir": 3651,
      "Ġsch": 3652,
      "urance": 3653,
      "Ġallowed": 3654,
      "Ġbirds": 3655,
      "book": 3656,
      "Ġdigital": 3657,
      "Ġdegree": 3658,
      "Ġdestro": 3659,
      "oday": 3660,
      "Ġden": 3661,
      "Ġconflic": 3662,
      "Ġeveryone": 3663,
      "Ġ:": 3664,
      "Ġelectr": 3665,
      "men": 3666,
      "cial": 3667,
      "ĠInc": 3668,
      "ords": 3669,
      "off": 3670,
      "Ġcollection": 3671,
      "Ġopportunity": 3672,
      "Ġ60": 3673,
      "ĠAustralia": 3674,
      "Ġcode": 3675,
      "Ġwinter": 3676,
      "ĠEast": 3677,
      "ribute": 3678,
      "ĠCoun": 3679,
      "ĠRed": 3680,
      "ĠSystem": 3681,
      "Ġorganization": 3682,
      "Ġshape": 3683,
      "Ġearlier": 3684,
      "ara": 3685,
      "Ġmax": 3686,
      "mitted": 3687,
      "Ġplaced": 3688,
      "ĠOur": 3689,
      "ĠLear": 3690,
      "Ġmiss": 3691,
      "Ġmember": 3692,
      "Ġconnect": 3693,
      "Ġwon": 3694,
      "can": 3695,
      "ĠAccording": 3696,
      "Ġvia": 3697,
      "With": 3698,
      "iable": 3699,
      "ĠDis": 3700,
      "Ġconstant": 3701,
      "lamm": 3702,
      "Ġtou": 3703,
      "ĠHigh": 3704,
      "While": 3705,
      "Ġhon": 3706,
      "Ġrise": 3707,
      "ĠTechn": 3708,
      "vert": 3709,
      "Ġphilos": 3710,
      "Ġvill": 3711,
      "Ġsequ": 3712,
      "Ġfair": 3713,
      "ED": 3714,
      "Ġusers": 3715,
      "oration": 3716,
      "urg": 3717,
      "Ġrecommend": 3718,
      "Ġscale": 3719,
      "ibly": 3720,
      "itable": 3721,
      "Ex": 3722,
      "Ġyourself": 3723,
      "AL": 3724,
      "Ġweather": 3725,
      "Ġbreat": 3726,
      "Ġleave": 3727,
      "Ġstandards": 3728,
      "ĠGermany": 3729,
      "que": 3730,
      "\",": 3731,
      "hemat": 3732,
      "Ġoccurs": 3733,
      "Ġcalcul": 3734,
      "ĠGeneral": 3735,
      "Ġdrugs": 3736,
      "exic": 3737,
      "ruary": 3738,
      "Ġstrength": 3739,
      "70": 3740,
      "ĠHouse": 3741,
      "Ġmeasures": 3742,
      "ĠVir": 3743,
      "Pro": 3744,
      "Ġapplied": 3745,
      "Ġwond": 3746,
      "Ġoccup": 3747,
      "Ġbehavi": 3748,
      "time": 3749,
      "ellig": 3750,
      "Ġhistorical": 3751,
      "26": 3752,
      "odes": 3753,
      "Ġcoming": 3754,
      "ĠTrans": 3755,
      "Ġrule": 3756,
      "iology": 3757,
      "Ġroom": 3758,
      "Ġformed": 3759,
      "ĠSocial": 3760,
      "Ġcorn": 3761,
      "uro": 3762,
      "orge": 3763,
      "ĠCommun": 3764,
      "ĠDuring": 3765,
      "Ġperhaps": 3766,
      "Ġgave": 3767,
      "Ġteach": 3768,
      "encies": 3769,
      "29": 3770,
      "Ġpoly": 3771,
      "Ġpredict": 3772,
      "Ġexec": 3773,
      "Ġpurch": 3774,
      "ingu": 3775,
      "iful": 3776,
      "Ġdidn": 3777,
      "ĠThen": 3778,
      "Ġnote": 3779,
      "Ġdeal": 3780,
      "Ġalcohol": 3781,
      "Ġcommerc": 3782,
      "Ġvisual": 3783,
      "Ġoverall": 3784,
      "load": 3785,
      "Ġequipment": 3786,
      "rec": 3787,
      "irection": 3788,
      "Ġteeth": 3789,
      "Ġcommonly": 3790,
      "Ġgold": 3791,
      "Ġworked": 3792,
      "Ġperfect": 3793,
      "Ġcateg": 3794,
      "Ġmajority": 3795,
      "Ġillust": 3796,
      "Ġcru": 3797,
      "Ġrock": 3798,
      "Ġrich": 3799,
      "reet": 3800,
      "uff": 3801,
      "Ġpeace": 3802,
      "Ġarchitect": 3803,
      "Ġisn": 3804,
      "Ġillness": 3805,
      "Ġstories": 3806,
      "Ġtox": 3807,
      "oted": 3808,
      "cont": 3809,
      "Ġfruit": 3810,
      "Ġacqu": 3811,
      "ensity": 3812,
      "Ġtrack": 3813,
      "itch": 3814,
      "Ġpiece": 3815,
      "aled": 3816,
      "Ġpow": 3817,
      "Ġassign": 3818,
      "II": 3819,
      "Ġswe": 3820,
      "Ġvirt": 3821,
      "enty": 3822,
      "Ġemp": 3823,
      "Ġsect": 3824,
      "ocks": 3825,
      "phas": 3826,
      "Ġroad": 3827,
      "Ġstatus": 3828,
      "known": 3829,
      "Ġversion": 3830,
      "ĠRead": 3831,
      "Ġenter": 3832,
      "ĠRetrieved": 3833,
      "ula": 3834,
      "Ġchoice": 3835,
      "ocr": 3836,
      "wide": 3837,
      "Ġidentified": 3838,
      "ĠAlso": 3839,
      "Ġshowed": 3840,
      "Ġreduced": 3841,
      "ĠSim": 3842,
      "Ġsteps": 3843,
      "PA": 3844,
      "more": 3845,
      "bl": 3846,
      "unch": 3847,
      "iant": 3848,
      "Ġchurch": 3849,
      "Be": 3850,
      "ĠBecause": 3851,
      "Ġappears": 3852,
      "Ġrelatively": 3853,
      "Ġbreast": 3854,
      "Ġdifferences": 3855,
      "Ġtele": 3856,
      "Ġcook": 3857,
      "aint": 3858,
      "Ġfully": 3859,
      "ĠFin": 3860,
      "Ġprofessional": 3861,
      "28": 3862,
      "ospital": 3863,
      "Some": 3864,
      "ĠPat": 3865,
      "iences": 3866,
      "ĠNow": 3867,
      "Ġincreases": 3868,
      "Ġelement": 3869,
      "Ġpowerful": 3870,
      "Ġexposure": 3871,
      "iate": 3872,
      "Ġrunning": 3873,
      "Ġunit": 3874,
      "gery": 3875,
      "uls": 3876,
      "tery": 3877,
      "ĠInst": 3878,
      "Ġwid": 3879,
      "Ġmoving": 3880,
      "27": 3881,
      "Ġdisplay": 3882,
      "Ġsem": 3883,
      "bre": 3884,
      "Ġcities": 3885,
      "Ġsymbol": 3886,
      "resp": 3887,
      "ĠMexic": 3888,
      "Ġcompar": 3889,
      "Ġmoment": 3890,
      "ĠSince": 3891,
      "Ġriver": 3892,
      "ev": 3893,
      "Ġgiving": 3894,
      "Ġexpand": 3895,
      "iny": 3896,
      "aign": 3897,
      "Ġattract": 3898,
      "Ġactions": 3899,
      "Ġacadem": 3900,
      "ĠMod": 3901,
      "ĠWater": 3902,
      "ĠUnion": 3903,
      "Ġmut": 3904,
      "Ġ195": 3905,
      "Ġremember": 3906,
      "force": 3907,
      "Ġatmosp": 3908,
      "Ġenh": 3909,
      "Ġproperties": 3910,
      "Ġmob": 3911,
      "Ġbelief": 3912,
      "Ġbaby": 3913,
      "rief": 3914,
      "ĠUse": 3915,
      "âĢĿ,": 3916,
      "Ġvision": 3917,
      "Ġ26": 3918,
      "Ġdat": 3919,
      "ken": 3920,
      "ĠPhil": 3921,
      "rehens": 3922,
      "Ġfert": 3923,
      "ĠProt": 3924,
      "Ġcontract": 3925,
      "Ġchanged": 3926,
      "ĠAng": 3927,
      "Ġevolution": 3928,
      "Ġlimit": 3929,
      "Ġfigure": 3930,
      "Ġworth": 3931,
      "Ġrob": 3932,
      "Ġ28": 3933,
      "Ġcapacity": 3934,
      "Ġ2006": 3935,
      "Ġefficient": 3936,
      "ees": 3937,
      "ĠMedic": 3938,
      "ament": 3939,
      "rupt": 3940,
      "Ġconstruct": 3941,
      "Ġassist": 3942,
      "cious": 3943,
      "Ġmission": 3944,
      "ĠInternet": 3945,
      "Ġjoint": 3946,
      "Ġfactor": 3947,
      "Ġforeign": 3948,
      "ĠPeople": 3949,
      "Ġcra": 3950,
      "Ġmouth": 3951,
      "yd": 3952,
      "Ġblue": 3953,
      "Ġ2000": 3954,
      "ero": 3955,
      "Ġeducational": 3956,
      "Ġstar": 3957,
      "house": 3958,
      "Ġexisting": 3959,
      "Ġpresence": 3960,
      "Ġinsect": 3961,
      "Ġseparate": 3962,
      "Ġmig": 3963,
      "Ġrepe": 3964,
      "Ġdistance": 3965,
      "Ġanx": 3966,
      "ĠAre": 3967,
      "osy": 3968,
      "Ġpicture": 3969,
      "Ġstrugg": 3970,
      "Ġnutri": 3971,
      "ĠFl": 3972,
      "Ġcitizens": 3973,
      "Ġrat": 3974,
      "Ġrout": 3975,
      "Ġfemale": 3976,
      "HE": 3977,
      "Ġnames": 3978,
      "Ġfamous": 3979,
      "Ġlearned": 3980,
      "pective": 3981,
      "related": 3982,
      "pris": 3983,
      "Ġoffice": 3984,
      "Ġbound": 3985,
      "omas": 3986,
      "ste": 3987,
      "eech": 3988,
      "Ġincor": 3989,
      "Ġsurvey": 3990,
      "wards": 3991,
      "Ġseven": 3992,
      "Ġdefined": 3993,
      "Ġtransfer": 3994,
      "Ġfresh": 3995,
      "ession": 3996,
      "Ġeventually": 3997,
      "lege": 3998,
      "ĠJust": 3999,
      "ĠJapanese": 4000,
      "Ġjournal": 4001,
      "ĠProf": 4002,
      "Ġbelieved": 4003,
      "ĠRo": 4004,
      "Un": 4005,
      "ĠFebruary": 4006,
      "Ġconvers": 4007,
      "Ġbank": 4008,
      "Ġball": 4009,
      "Ġequal": 4010,
      "ĠNA": 4011,
      "hors": 4012,
      "ĠAssociation": 4013,
      "Ġinstance": 4014,
      "Ġdetails": 4015,
      "Ġfunctions": 4016,
      "ald": 4017,
      "Ġoffers": 4018,
      "Ġsigns": 4019,
      "semb": 4020,
      "Ġopportunities": 4021,
      "iance": 4022,
      "iring": 4023,
      "Ġ2015": 4024,
      "ĠWestern": 4025,
      "Ġpatterns": 4026,
      "ĠTheir": 4027,
      "ternal": 4028,
      "ĠSee": 4029,
      "Ġgod": 4030,
      "ĠCom": 4031,
      "Ġbra": 4032,
      "icip": 4033,
      "asion": 4034,
      "ros": 4035,
      "ĠDavid": 4036,
      "Ġchance": 4037,
      "Ġfindings": 4038,
      "Ġpassed": 4039,
      "Ġ22": 4040,
      "Ġhuge": 4041,
      "Ġthousands": 4042,
      "Ġtruth": 4043,
      "Ġsuggests": 4044,
      "ĠUN": 4045,
      "Ġmoved": 4046,
      "Ġ2016": 4047,
      "ĠCouncil": 4048,
      "Ġdirection": 4049,
      "Ġtissue": 4050,
      "Ġmal": 4051,
      "Ġassum": 4052,
      "90": 4053,
      "hetic": 4054,
      "Ġnuclear": 4055,
      "Ġeight": 4056,
      "part": 4057,
      "Ġnative": 4058,
      "ĠPal": 4059,
      "Ġplans": 4060,
      "Ġclassroom": 4061,
      "mark": 4062,
      "Ġmachine": 4063,
      "era": 4064,
      "ologist": 4065,
      "ographic": 4066,
      "Ġpp": 4067,
      "pped": 4068,
      "ĠGreen": 4069,
      "They": 4070,
      "ĠJewish": 4071,
      "Ġqual": 4072,
      "rick": 4073,
      "tee": 4074,
      "Ġtask": 4075,
      "Ġimmediately": 4076,
      "atin": 4077,
      "Ad": 4078,
      "isation": 4079,
      "ĠCour": 4080,
      "ĠFrance": 4081,
      "ĠCur": 4082,
      "ĠEnvironment": 4083,
      "Ġmag": 4084,
      "Ġvo": 4085,
      "uild": 4086,
      "abilities": 4087,
      "Ġimmune": 4088,
      "Ġkid": 4089,
      "All": 4090,
      "Ġresistance": 4091,
      "enth": 4092,
      "ĠBlack": 4093,
      "Ġstim": 4094,
      "Ġbox": 4095,
      "Ġwrong": 4096,
      "Ġexhib": 4097,
      "Ġpresident": 4098,
      "ĠIr": 4099,
      "key": 4100,
      "Ġincome": 4101,
      "DA": 4102,
      "RE": 4103,
      "Ġweak": 4104,
      "ĠEach": 4105,
      "Ġactual": 4106,
      "Ġsexual": 4107,
      "Ġopin": 4108,
      "ĠProgram": 4109,
      "Ġ+": 4110,
      "Ġantib": 4111,
      "Ġphen": 4112,
      "Ġextremely": 4113,
      "Ġcry": 4114,
      "ogle": 4115,
      "Ġinstruct": 4116,
      "Ġ2005": 4117,
      "Ġdistribution": 4118,
      "Ġreports": 4119,
      "ĠCongress": 4120,
      "Ġmap": 4121,
      "ĠThus": 4122,
      "Ġload": 4123,
      "Ġfavor": 4124,
      "After": 4125,
      "Ġstaff": 4126,
      "Ġhappen": 4127,
      "Ġstructures": 4128,
      "Ġdetect": 4129,
      "Ġabsor": 4130,
      "Ġhousehold": 4131,
      "Ġregions": 4132,
      "Ġeffic": 4133,
      "Ġforward": 4134,
      "Ġtopic": 4135,
      "Ġexplain": 4136,
      "Ġhighest": 4137,
      "che": 4138,
      "ĠJames": 4139,
      "Ġfriend": 4140,
      "Ġ27": 4141,
      "Ġguide": 4142,
      "Ġcollabor": 4143,
      "Ġsac": 4144,
      "ĠPublic": 4145,
      "Ġapproximately": 4146,
      "Ġdivid": 4147,
      "Ġing": 4148,
      "Ġgene": 4149,
      "ĠVol": 4150,
      "ĠSur": 4151,
      "Ġgarden": 4152,
      "gal": 4153,
      "ifically": 4154,
      "Ġtreated": 4155,
      "cular": 4156,
      "su": 4157,
      "ĠMich": 4158,
      "Ġoptions": 4159,
      "Ġbodies": 4160,
      "ĠMor": 4161,
      "Ġcommercial": 4162,
      "Is": 4163,
      "ĠLord": 4164,
      "Ġurban": 4165,
      "ĠUK": 4166,
      "eces": 4167,
      "Ġgeneration": 4168,
      "change": 4169,
      "iox": 4170,
      "ĠInter": 4171,
      "Ġconsumption": 4172,
      "Ġapply": 4173,
      "clus": 4174,
      "Ġmuscle": 4175,
      "Ġinnov": 4176,
      "apers": 4177,
      "Ġ190": 4178,
      "Ġstyle": 4179,
      "Ġhair": 4180,
      "otes": 4181,
      "ander": 4182,
      "Ġfig": 4183,
      "rome": 4184,
      "Ġchallenges": 4185,
      "cast": 4186,
      "Ġreference": 4187,
      "ĠOb": 4188,
      "Ġemphas": 4189,
      "ĠTur": 4190,
      "Ġtechnologies": 4191,
      "Ġdyn": 4192,
      "Ġspect": 4193,
      "Ġgraph": 4194,
      "Ġpopulations": 4195,
      "Ġnutrition": 4196,
      "Ġcomponents": 4197,
      "Ġspring": 4198,
      "Ġdecades": 4199,
      "ophy": 4200,
      "Ġparty": 4201,
      "Ġlived": 4202,
      "ĠPlan": 4203,
      "Ġchallenge": 4204,
      "ĠAut": 4205,
      "Ġorganizations": 4206,
      "Ġwatch": 4207,
      "OS": 4208,
      "ĠBra": 4209,
      "Ġgain": 4210,
      "Ġcarried": 4211,
      "rations": 4212,
      "Ġstrategies": 4213,
      "rative": 4214,
      "orage": 4215,
      "Ġfreedom": 4216,
      "Ġdepression": 4217,
      "Ġheavy": 4218,
      "ĠGovernment": 4219,
      "Ġslight": 4220,
      "ygen": 4221,
      "Ġdisorder": 4222,
      "Ġisland": 4223,
      "igen": 4224,
      "Ġdestroy": 4225,
      "Ġconnected": 4226,
      "Ġfilm": 4227,
      "char": 4228,
      "Ġletter": 4229,
      "Ġobserved": 4230,
      "Ġbuildings": 4231,
      "Ġvitamin": 4232,
      "Ar": 4233,
      "antic": 4234,
      "nes": 4235,
      "Ġchronic": 4236,
      "iated": 4237,
      "Ġplanning": 4238,
      "Ġign": 4239,
      "Ġdim": 4240,
      "Ġboard": 4241,
      "iment": 4242,
      "Ġmilk": 4243,
      "Ġexplore": 4244,
      "Ġemissions": 4245,
      "Ġestimated": 4246,
      "Ġpick": 4247,
      "ĠRel": 4248,
      "Ġord": 4249,
      "Ġnotes": 4250,
      "Ġdisorders": 4251,
      "Ġmeat": 4252,
      "ĠDec": 4253,
      "Ġlegis": 4254,
      "Ġelectricity": 4255,
      "Ġexcess": 4256,
      "ĠDon": 4257,
      "Ġelim": 4258,
      "Ġcopy": 4259,
      "Ġmedicine": 4260,
      "Ġhomes": 4261,
      "porary": 4262,
      "Ġintroduced": 4263,
      "Ġfields": 4264,
      "Ġfeature": 4265,
      "ĠCollege": 4266,
      "Ġliterature": 4267,
      "Ġbecoming": 4268,
      "Ġnovel": 4269,
      "Ġrelease": 4270,
      "Ġâ": 4271,
      "Ġbalance": 4272,
      "ares": 4273,
      "ĠHuman": 4274,
      "Ġappe": 4275,
      "bed": 4276,
      "Ġfaith": 4277,
      "Ġcand": 4278,
      "omic": 4279,
      "Ġves": 4280,
      "Ġbran": 4281,
      "Ġpresented": 4282,
      "Ġprice": 4283,
      "Ġclinical": 4284,
      "ĠDevelopment": 4285,
      "Ġgoals": 4286,
      "Ġrecords": 4287,
      "Ġvary": 4288,
      "Ġocean": 4289,
      "oma": 4290,
      "ĠMat": 4291,
      "Ġmer": 4292,
      "Ġcontrast": 4293,
      "Ġclearly": 4294,
      "Ġmo": 4295,
      "Ġeasier": 4296,
      "Ġsetting": 4297,
      "plications": 4298,
      "ped": 4299,
      "rant": 4300,
      "78": 4301,
      "Ġtour": 4302,
      "Ġdoub": 4303,
      "Ġship": 4304,
      "ida": 4305,
      "Ġtransl": 4306,
      "Ġindustrial": 4307,
      "ĠAv": 4308,
      "Ġconv": 4309,
      "Ġreleased": 4310,
      "Ġexperiences": 4311,
      "ĠMuseum": 4312,
      "ulf": 4313,
      "Ġutil": 4314,
      "ĠFood": 4315,
      "Ġphysic": 4316,
      "Ġmotion": 4317,
      "Ġmale": 4318,
      "Ġnoted": 4319,
      "Ġserve": 4320,
      "Ġalternative": 4321,
      "Ġbottom": 4322,
      "unction": 4323,
      "elines": 4324,
      "opy": 4325,
      "ortion": 4326,
      "ĠSpanish": 4327,
      "Ġdesp": 4328,
      "Ġreality": 4329,
      "ĠOff": 4330,
      "ĠNet": 4331,
      "33": 4332,
      "ager": 4333,
      "Ġdiscussion": 4334,
      "erved": 4335,
      "Ġstarting": 4336,
      "Ġaspects": 4337,
      "ĠChe": 4338,
      "Ġcombination": 4339,
      "nam": 4340,
      "Ġexperiment": 4341,
      "Ġnumerous": 4342,
      "Ġdecisions": 4343,
      "Ġturned": 4344,
      "Ġlayer": 4345,
      "ĠGreek": 4346,
      "Ġessay": 4347,
      "Ġliqu": 4348,
      "tered": 4349,
      "ias": 4350,
      "ean": 4351,
      "essor": 4352,
      "ij": 4353,
      "stitution": 4354,
      "Ġcausing": 4355,
      "ĠPaul": 4356,
      "roup": 4357,
      "Ġresource": 4358,
      "Ph": 4359,
      "Ġstream": 4360,
      "Ġtemperatures": 4361,
      "Ġ29": 4362,
      "Ġpartners": 4363,
      "Ġstore": 4364,
      "ĠUnder": 4365,
      "ube": 4366,
      "Ġdrop": 4367,
      "Ġkilled": 4368,
      "Ġrot": 4369,
      "Ġesc": 4370,
      "Ġwidely": 4371,
      "Ġagg": 4372,
      "Ġitems": 4373,
      "Ġoperations": 4374,
      "Ġbattle": 4375,
      "Ġfrequently": 4376,
      "Ġsignificantly": 4377,
      "Ġcampaign": 4378,
      "Ġhear": 4379,
      "Ġterrit": 4380,
      "uses": 4381,
      "Ġindependent": 4382,
      "Ġgets": 4383,
      "EM": 4384,
      "ĠGeorge": 4385,
      "iding": 4386,
      "45": 4387,
      "lick": 4388,
      "ĠRev": 4389,
      "ĠRepublic": 4390,
      "Ġsave": 4391,
      "Ġannual": 4392,
      "olid": 4393,
      "care": 4394,
      "Ġoutput": 4395,
      "ii": 4396,
      "erate": 4397,
      "Ġconnection": 4398,
      "Ġgrant": 4399,
      "Ġtim": 4400,
      "ago": 4401,
      "Ġthr": 4402,
      "ĠArab": 4403,
      "ressive": 4404,
      "Ġanyone": 4405,
      "Ġroot": 4406,
      "tical": 4407,
      "ulum": 4408,
      "Ġauthors": 4409,
      "ously": 4410,
      "aped": 4411,
      "Ġcovered": 4412,
      "ollow": 4413,
      "ĠWeb": 4414,
      "Ġbone": 4415,
      "Ġ80": 4416,
      "Ġbed": 4417,
      "Äģ": 4418,
      "othes": 4419,
      "Ġwhom": 4420,
      "olved": 4421,
      "ologists": 4422,
      "Ġdogs": 4423,
      "Ġnor": 4424,
      "ĠKore": 4425,
      "ĠSpec": 4426,
      "zz": 4427,
      "Ġvessel": 4428,
      "ĠBel": 4429,
      "Ġserved": 4430,
      "ĠAir": 4431,
      "ĠOver": 4432,
      "Ġconducted": 4433,
      "met": 4434,
      "Ġ2014": 4435,
      "Ġrequirements": 4436,
      "ĠSam": 4437,
      "Ġcore": 4438,
      "Ġmessage": 4439,
      "ĠCath": 4440,
      "Ġcycle": 4441,
      "ĠMary": 4442,
      "works": 4443,
      "Ġisol": 4444,
      "onic": 4445,
      "anging": 4446,
      "Ġstatement": 4447,
      "Ġtum": 4448,
      "Ġsurgery": 4449,
      "Ġupper": 4450,
      "Ġdegrees": 4451,
      "ĠChildren": 4452,
      "ception": 4453,
      "Ġsample": 4454,
      "Ġhelped": 4455,
      "Ġbeautiful": 4456,
      "ĠMal": 4457,
      "ĠDes": 4458,
      "Ġradio": 4459,
      "Ġmetal": 4460,
      "35": 4461,
      "Ġ186": 4462,
      "Ġcompl": 4463,
      "ressed": 4464,
      "edic": 4465,
      "Ġperformed": 4466,
      "ĠMount": 4467,
      "ria": 4468,
      "ructure": 4469,
      "ĠOrgan": 4470,
      "Ġmeeting": 4471,
      "Ġchanging": 4472,
      "ux": 4473,
      "Ġpi": 4474,
      "ingly": 4475,
      "Ġdangerous": 4476,
      "orial": 4477,
      "Ġtrib": 4478,
      "Ġcollege": 4479,
      "Ġnorthern": 4480,
      "Ġbelong": 4481,
      "Ġtechnique": 4482,
      "icial": 4483,
      "road": 4484,
      "raction": 4485,
      "Ġpolicies": 4486,
      "Ġprinciples": 4487,
      "Ġspeech": 4488,
      "ĠSun": 4489,
      "Ġcomprehens": 4490,
      "Ġresulting": 4491,
      "bal": 4492,
      "itz": 4493,
      "ĠâĢ¦": 4494,
      "Ġunivers": 4495,
      "Ġiron": 4496,
      "oting": 4497,
      "atically": 4498,
      "Ġfinding": 4499,
      "Ġwin": 4500,
      "ieties": 4501,
      "Ġfine": 4502,
      "ilit": 4503,
      "Ġplastic": 4504,
      "Ġwanted": 4505,
      "Ġhappens": 4506,
      "Ġradiation": 4507,
      "och": 4508,
      "Ġtrust": 4509,
      "Ġrisks": 4510,
      "Ġinterpret": 4511,
      "ferences": 4512,
      "ĠFound": 4513,
      "Ġgames": 4514,
      "Ġflood": 4515,
      "Sh": 4516,
      "Ġspent": 4517,
      "Ġdetermined": 4518,
      "Ġexactly": 4519,
      "Ġintellig": 4520,
      "respond": 4521,
      "ĠIsland": 4522,
      "Ġremove": 4523,
      "aughter": 4524,
      "Ġbrother": 4525,
      "ĠLet": 4526,
      "Ġrecommended": 4527,
      "Ġdrive": 4528,
      "Ġdistinct": 4529,
      "Ġparticipants": 4530,
      "Ġreligion": 4531,
      "Ġexpression": 4532,
      "rum": 4533,
      "board": 4534,
      "isher": 4535,
      "Ġmel": 4536,
      "Ġdram": 4537,
      "Ġ2004": 4538,
      "Ġminor": 4539,
      "Ġreprodu": 4540,
      "Ġoxygen": 4541,
      "rog": 4542,
      "Ġhom": 4543,
      "Ġreb": 4544,
      "raw": 4545,
      "oyal": 4546,
      "Ġready": 4547,
      "Ġreferred": 4548,
      "atform": 4549,
      "Ġbuy": 4550,
      "Ġpreviously": 4551,
      "________": 4552,
      "Ġlib": 4553,
      "Ġconservation": 4554,
      "ping": 4555,
      "Ġburn": 4556,
      "Ġkill": 4557,
      "Ġcircum": 4558,
      "US": 4559,
      "iveness": 4560,
      "According": 4561,
      "Ġunf": 4562,
      "Ġtrou": 4563,
      "ĠDem": 4564,
      "Ġcreation": 4565,
      "ocal": 4566,
      "Ġglass": 4567,
      "ault": 4568,
      "Ġcounter": 4569,
      "ĠIts": 4570,
      "Ġ2003": 4571,
      "Ġprefer": 4572,
      "Ġarm": 4573,
      "Ġremoved": 4574,
      "ĠLa": 4575,
      "AM": 4576,
      "Ġconfirm": 4577,
      "roph": 4578,
      "Ġproposed": 4579,
      "cers": 4580,
      "Ġscen": 4581,
      "Ġassessment": 4582,
      "Ġhour": 4583,
      "Ġunits": 4584,
      "Ġpret": 4585,
      "Ġlandsc": 4586,
      "urt": 4587,
      "berg": 4588,
      "do": 4589,
      "ĠRober": 4590,
      "Ġplease": 4591,
      "Ġorganic": 4592,
      "ĠIslam": 4593,
      "ek": 4594,
      "ĠST": 4595,
      "Ġsquare": 4596,
      "Ġsouthern": 4597,
      "ĠMars": 4598,
      "Ġstorage": 4599,
      "Ġvictim": 4600,
      "Sp": 4601,
      "Ġgrass": 4602,
      "ĠPort": 4603,
      "Ġinfections": 4604,
      "Ġdescribe": 4605,
      "ags": 4606,
      "Ġcredit": 4607,
      "ras": 4608,
      "ĠWork": 4609,
      "Ġmathemat": 4610,
      "Ġmostly": 4611,
      "well": 4612,
      "Ġexcell": 4613,
      "rian": 4614,
      "That": 4615,
      "rans": 4616,
      "Here": 4617,
      "Ġpal": 4618,
      "ognitive": 4619,
      "Ġinflamm": 4620,
      "Ġyouth": 4621,
      "Ġhearing": 4622,
      "CC": 4623,
      "asks": 4624,
      "Ġobvious": 4625,
      "ĠWhy": 4626,
      "Ġsynt": 4627,
      "Ġtrig": 4628,
      "Ġregarding": 4629,
      "Ġexpert": 4630,
      "PS": 4631,
      "riage": 4632,
      "Ġlinked": 4633,
      "mal": 4634,
      "Ġvul": 4635,
      "Ġgenes": 4636,
      "Ġstrate": 4637,
      "Ġcharacteristics": 4638,
      "Ġhop": 4639,
      "Ġinstitutions": 4640,
      "Ġstrategy": 4641,
      "Ġheard": 4642,
      "Ġclos": 4643,
      "Ġ2017": 4644,
      "Ġowners": 4645,
      "Ġfeeling": 4646,
      "Ġvolunt": 4647,
      "Ġrelationships": 4648,
      "Ġinternal": 4649,
      "ĠRussian": 4650,
      "Â°": 4651,
      "ĠFore": 4652,
      "Ġinitial": 4653,
      "Ġencourage": 4654,
      "Ġcalc": 4655,
      "Ġ#": 4656,
      "ortunately": 4657,
      "ĠSer": 4658,
      "36": 4659,
      "Ġlic": 4660,
      "ĠMark": 4661,
      "ta": 4662,
      "Ġupd": 4663,
      "Ġinvolve": 4664,
      "osystem": 4665,
      "Ġwaters": 4666,
      "Ġidentity": 4667,
      "Ġimpl": 4668,
      "Ġcharge": 4669,
      "Ġ90": 4670,
      "Ġanxiety": 4671,
      "Ġdatab": 4672,
      "kin": 4673,
      "ĠOnce": 4674,
      "Ġviolence": 4675,
      "Ġround": 4676,
      "ishing": 4677,
      "Ġdecided": 4678,
      "Ġpages": 4679,
      "Ġmeant": 4680,
      "with": 4681,
      "uted": 4682,
      "Ġmentioned": 4683,
      "Ġsolid": 4684,
      "ĠBudd": 4685,
      "Ġexperienced": 4686,
      "Ġinvent": 4687,
      "Ġarticles": 4688,
      "Ġsaying": 4689,
      "Ġnit": 4690,
      "amental": 4691,
      "umn": 4692,
      "Ġclasses": 4693,
      "ĠGra": 4694,
      "Ġprepar": 4695,
      "Ġconflict": 4696,
      "rows": 4697,
      "Ġremained": 4698,
      "reland": 4699,
      "ĠAsia": 4700,
      "Ġprepared": 4701,
      "Ġemail": 4702,
      "Ġ...": 4703,
      "Ġmist": 4704,
      "Ġclick": 4705,
      "iverse": 4706,
      "Ġsolutions": 4707,
      "rating": 4708,
      "Ġconclud": 4709,
      "mat": 4710,
      "uing": 4711,
      "Ġfailure": 4712,
      "Ġinjury": 4713,
      "Ġleads": 4714,
      "Ġrelevant": 4715,
      "Ġeggs": 4716,
      "Many": 4717,
      "Ġjour": 4718,
      "Ġforced": 4719,
      "ĠMet": 4720,
      "Ġbackground": 4721,
      "Ġoption": 4722,
      "ĠWhite": 4723,
      "Ġofficial": 4724,
      "Ġreplace": 4725,
      "Ġinh": 4726,
      "oper": 4727,
      "ĠDirect": 4728,
      "Ġeffectively": 4729,
      "However": 4730,
      "Ġ189": 4731,
      "ĠSal": 4732,
      "ET": 4733,
      "Ġinterested": 4734,
      "Ġproperly": 4735,
      "Ġchemicals": 4736,
      "Ġadvantage": 4737,
      "Ġacademic": 4738,
      "uration": 4739,
      "Ġwealth": 4740,
      "ĠEv": 4741,
      "Ġdiss": 4742,
      "Ġincorpor": 4743,
      "Ġsav": 4744,
      "ĠHen": 4745,
      "Our": 4746,
      "lease": 4747,
      "Ġsettle": 4748,
      "ya": 4749,
      "Ġban": 4750,
      "Ġreached": 4751,
      "Ġamounts": 4752,
      "Ġdie": 4753,
      "leg": 4754,
      "Ġfinally": 4755,
      "Ġphenomen": 4756,
      "Ġcris": 4757,
      "riculum": 4758,
      "ears": 4759,
      "ĠTherefore": 4760,
      "Ġalg": 4761,
      "oviet": 4762,
      "ĠProject": 4763,
      "75": 4764,
      "fered": 4765,
      "Ġreducing": 4766,
      "rep": 4767,
      "ĠTest": 4768,
      "ĠStudents": 4769,
      "Ġtransform": 4770,
      "Ġgrand": 4771,
      "ributed": 4772,
      "ĠThomas": 4773,
      "wood": 4774,
      "ĠRich": 4775,
      "Ġreaction": 4776,
      "Ġspot": 4777,
      "Ġpun": 4778,
      "Ġaid": 4779,
      "Ġgar": 4780,
      "Ġexperts": 4781,
      "Ġinvolves": 4782,
      "Ġsort": 4783,
      "ĠSen": 4784,
      "astern": 4785,
      "akers": 4786,
      "Ġmotor": 4787,
      "Ġadvanced": 4788,
      "'ll": 4789,
      "acing": 4790,
      "ĠNASA": 4791,
      "Ġsand": 4792,
      "Ġkept": 4793,
      "Ġtrend": 4794,
      "Ġsufficient": 4795,
      "acific": 4796,
      "tes": 4797,
      "ĠBritain": 4798,
      "Ġcoord": 4799,
      "Ġdepending": 4800,
      "Ġtooth": 4801,
      "ĠBer": 4802,
      "ĠHIV": 4803,
      "Ġexposed": 4804,
      "ĠQue": 4805,
      "Ġfarmers": 4806,
      "Ġraised": 4807,
      "Ġdro": 4808,
      "Ġcenturies": 4809,
      "Ġlesson": 4810,
      "Ġmanner": 4811,
      "Ġcorrespond": 4812,
      "ĠMart": 4813,
      "Ġvolume": 4814,
      "Ġtoxic": 4815,
      "ndrome": 4816,
      "Ġpip": 4817,
      "eline": 4818,
      "Ġdiscover": 4819,
      "Ġpromote": 4820,
      "Ġadjust": 4821,
      "Ġwest": 4822,
      "Ġconver": 4823,
      "ĠMr": 4824,
      "ĠWell": 4825,
      "Ġarmy": 4826,
      "Ġeast": 4827,
      "ĠArmy": 4828,
      "Ġconcepts": 4829,
      "Ġdri": 4830,
      "Ġsecret": 4831,
      "ĠLou": 4832,
      "Ġleader": 4833,
      "rete": 4834,
      "Ġpieces": 4835,
      "Ġrace": 4836,
      "Ġtrial": 4837,
      "Res": 4838,
      "ossible": 4839,
      "Ġprocessing": 4840,
      "AD": 4841,
      "ĠOld": 4842,
      "Ġtrad": 4843,
      "Ġgirls": 4844,
      "Ġgender": 4845,
      "Although": 4846,
      "iling": 4847,
      "Ġ70": 4848,
      "ĠPhys": 4849,
      "ĠAtl": 4850,
      "west": 4851,
      "ĠMiss": 4852,
      "place": 4853,
      "which": 4854,
      "Ġmanufacture": 4855,
      "Why": 4856,
      "ancing": 4857,
      "ules": 4858,
      "ework": 4859,
      "Ġlung": 4860,
      "Ġpric": 4861,
      "ĠSub": 4862,
      "Ġhelping": 4863,
      "Ġprimarily": 4864,
      "enced": 4865,
      "ĠSpace": 4866,
      "Ġsong": 4867,
      "Ġinput": 4868,
      "Ġfort": 4869,
      "ĠInf": 4870,
      "Ġwonder": 4871,
      "Ġflowers": 4872,
      "olars": 4873,
      "ĠBas": 4874,
      "Ġvegetables": 4875,
      "vis": 4876,
      "Ġsupported": 4877,
      "From": 4878,
      "asure": 4879,
      "Ġletters": 4880,
      "Ġdefic": 4881,
      "Ġlargely": 4882,
      "Ġsusp": 4883,
      "ishes": 4884,
      "Ġoffered": 4885,
      "Ġ35": 4886,
      "Now": 4887,
      "itors": 4888,
      "ĠLife": 4889,
      "Ġintended": 4890,
      "Ġconcern": 4891,
      "Ġneighbor": 4892,
      "za": 4893,
      "Ġemotional": 4894,
      "standing": 4895,
      "ifying": 4896,
      "Ġdrinking": 4897,
      "clusion": 4898,
      "Ġoccurred": 4899,
      "Ġlinks": 4900,
      "Ġpresc": 4901,
      "ixt": 4902,
      "Ġnotice": 4903,
      "Ġyellow": 4904,
      "apes": 4905,
      "Ġmainly": 4906,
      "col": 4907,
      "rus": 4908,
      "Ġbrief": 4909,
      "Ġblog": 4910,
      "Ġcontinues": 4911,
      "Ġprofession": 4912,
      "Ġdoll": 4913,
      "ĠIreland": 4914,
      "Ġcomfort": 4915,
      "Ġkn": 4916,
      "Ġinstall": 4917,
      "'ve": 4918,
      "Ġappoint": 4919,
      "ĠService": 4920,
      "atric": 4921,
      "Ġatmosphere": 4922,
      "Ġlooks": 4923,
      "Ġthick": 4924,
      "oking": 4925,
      "Ġconsult": 4926,
      "Ġoperation": 4927,
      "Ġnav": 4928,
      "ĠMedical": 4929,
      "Ġplatform": 4930,
      "Ġmanage": 4931,
      "Ġallowing": 4932,
      "Ġpractical": 4933,
      "Ġbegins": 4934,
      "vision": 4935,
      "ĠMass": 4936,
      "ĠMedicine": 4937,
      "ĠCentral": 4938,
      "Ġcompleted": 4939,
      "ĠVirgin": 4940,
      "BN": 4941,
      "Ġtaught": 4942,
      "Ġflex": 4943,
      "Ġmath": 4944,
      "espite": 4945,
      "Re": 4946,
      "Ġgrade": 4947,
      "Ġhit": 4948,
      "Ġrand": 4949,
      "Ġcombined": 4950,
      "Ġauthority": 4951,
      "Ab": 4952,
      "ael": 4953,
      "Ã¡": 4954,
      "Ġ2002": 4955,
      "gra": 4956,
      "38": 4957,
      "omin": 4958,
      "Ġtro": 4959,
      "ĠJer": 4960,
      "lig": 4961,
      "ari": 4962,
      "Cl": 4963,
      "ĠBay": 4964,
      "Ġpersons": 4965,
      "New": 4966,
      "Ġprofessor": 4967,
      "Ġlanguages": 4968,
      "Ġdefinition": 4969,
      "ounced": 4970,
      "otic": 4971,
      "Ġcere": 4972,
      "ĠMuslim": 4973,
      "Ġshared": 4974,
      "ĠJews": 4975,
      "Ġpollution": 4976,
      "zing": 4977,
      "aturally": 4978,
      "Ġconcerns": 4979,
      "Ġclaims": 4980,
      "Ġstorm": 4981,
      "ĠFre": 4982,
      "Ġseek": 4983,
      "gl": 4984,
      "Ġhighlight": 4985,
      "Ġideal": 4986,
      "Ġvulner": 4987,
      "Ġrandom": 4988,
      "ĠHel": 4989,
      "Ġpurposes": 4990,
      "Americ": 4991,
      "alle": 4992,
      "Ġtechnical": 4993,
      "ormal": 4994,
      "Ġdiagnosis": 4995,
      "ams": 4996,
      "Ġseed": 4997,
      "Ġprocedure": 4998,
      "ĠFlor": 4999,
      "Ġparticles": 5000,
      "going": 5001,
      "ĠSoviet": 5002,
      "ĠCommission": 5003,
      "Ġwife": 5004,
      "Ġextent": 5005,
      "Ġfundamental": 5006,
      "Ġprison": 5007,
      "Ġminimum": 5008,
      "Ġmaster": 5009,
      "Ġrecorded": 5010,
      "Ġprotected": 5011,
      "CO": 5012,
      "Ġkinds": 5013,
      "Ġstem": 5014,
      "Ġpros": 5015,
      "Ġreturned": 5016,
      "Ġexplan": 5017,
      "oo": 5018,
      "Ġquar": 5019,
      "Ġfelt": 5020,
      "ĠBi": 5021,
      "Ġiniti": 5022,
      "Ġefficiency": 5023,
      "acters": 5024,
      "Ġmorning": 5025,
      "Ġ2001": 5026,
      "Ġelectrical": 5027,
      "Ġseeds": 5028,
      "Ġpul": 5029,
      "Ġrenew": 5030,
      "Ġshowing": 5031,
      "mp": 5032,
      "ĠTex": 5033,
      "ball": 5034,
      "ample": 5035,
      "ado": 5036,
      "ĠEvery": 5037,
      "ĠCivil": 5038,
      "ĠRem": 5039,
      "48": 5040,
      "osite": 5041,
      "Ġimproved": 5042,
      "ĠAcadem": 5043,
      "ville": 5044,
      "win": 5045,
      "Ġengineering": 5046,
      "RO": 5047,
      "Ġcast": 5048,
      "ĠRussia": 5049,
      "roke": 5050,
      "Ġresist": 5051,
      "Ġperspective": 5052,
      "Ġgreatest": 5053,
      "Ġreduction": 5054,
      "osen": 5055,
      "Ġsche": 5056,
      "Most": 5057,
      "Ġlov": 5058,
      "Ġflat": 5059,
      "Ġawareness": 5060,
      "Ġcomment": 5061,
      "ĠDist": 5062,
      "enses": 5063,
      "Ġcollected": 5064,
      "Ġdespite": 5065,
      "ĠMexico": 5066,
      "Ġmere": 5067,
      "ĠNews": 5068,
      "Ġexistence": 5069,
      "Ġmos": 5070,
      "olute": 5071,
      "Ġindicate": 5072,
      "Ġfacts": 5073,
      "Ġwel": 5074,
      "Ġbud": 5075,
      "Ġfrequency": 5076,
      "gu": 5077,
      "Ġmaximum": 5078,
      "Ġbill": 5079,
      "Ġsin": 5080,
      "Ġsnow": 5081,
      "Ġcertainly": 5082,
      "Ġstation": 5083,
      "rier": 5084,
      "rich": 5085,
      "Ġhorm": 5086,
      "onds": 5087,
      "what": 5088,
      "ĠMac": 5089,
      "Ġbright": 5090,
      "Ġsustainable": 5091,
      "Ġjobs": 5092,
      "rapy": 5093,
      "la": 5094,
      "ey": 5095,
      "point": 5096,
      "Ġenem": 5097,
      "ĠKen": 5098,
      "Ġfirm": 5099,
      "Ġsuggested": 5100,
      "tion": 5101,
      "Ġdiscrim": 5102,
      "Ġkil": 5103,
      "Ġcoal": 5104,
      "Ġspiritual": 5105,
      "ht": 5106,
      "Ġsatis": 5107,
      "Ġfoss": 5108,
      "ĠÃ": 5109,
      "ĠAp": 5110,
      "Ġdetailed": 5111,
      "Ġstraight": 5112,
      "resents": 5113,
      "ĠHol": 5114,
      "Ġmotiv": 5115,
      "ĠDi": 5116,
      "39": 5117,
      "Ġphase": 5118,
      "ulating": 5119,
      "Ġfluid": 5120,
      "verty": 5121,
      "Ġsurpris": 5122,
      "ĠEmp": 5123,
      "Ġrevolution": 5124,
      "Pl": 5125,
      "Ġexplains": 5126,
      "Ġapproaches": 5127,
      "Ġadvice": 5128,
      "ĠEnergy": 5129,
      "nic": 5130,
      "Ġsend": 5131,
      "ĠTwo": 5132,
      "Ġther": 5133,
      "oughly": 5134,
      "Ġformation": 5135,
      "ca": 5136,
      "Ġchief": 5137,
      "inating": 5138,
      "100": 5139,
      "Ġrail": 5140,
      "Ġpoverty": 5141,
      "aker": 5142,
      "Ġconsequences": 5143,
      "lar": 5144,
      "ST": 5145,
      "Ġshar": 5146,
      "Ġconsists": 5147,
      "Ġdynam": 5148,
      "ĠLatin": 5149,
      "Ġemergency": 5150,
      "ache": 5151,
      "Ġlooked": 5152,
      "Ġhyper": 5153,
      "ĠCourt": 5154,
      "Ġfif": 5155,
      "Ġbiological": 5156,
      "ĠJose": 5157,
      "Ġspecifically": 5158,
      "ĠCharles": 5159,
      "Ġhabitat": 5160,
      "Con": 5161,
      "ĠEconom": 5162,
      "Ġpolice": 5163,
      "Ġ1990": 5164,
      "Ġhappened": 5165,
      "cript": 5166,
      "Ġdivided": 5167,
      "utive": 5168,
      "iced": 5169,
      "Ġstars": 5170,
      "ĠBible": 5171,
      "Ġfle": 5172,
      "Ġcontribute": 5173,
      "comes": 5174,
      "Ġonto": 5175,
      "Ġsector": 5176,
      "inf": 5177,
      "ĠOp": 5178,
      "anges": 5179,
      "Ġdu": 5180,
      "Ġresponsibility": 5181,
      "Ġsurrounding": 5182,
      "Ġfib": 5183,
      "Ġpotentially": 5184,
      "Ġcontrolled": 5185,
      "Ġvast": 5186,
      "Ġmonitoring": 5187,
      "active": 5188,
      "Ġinsurance": 5189,
      "ĠToday": 5190,
      "Ġsounds": 5191,
      "Ġdial": 5192,
      "Ġspl": 5193,
      "hips": 5194,
      "Ġdepth": 5195,
      "Ġthoughts": 5196,
      "Ġoperating": 5197,
      "ĠTechnology": 5198,
      "34": 5199,
      "Ġsituations": 5200,
      "Ġagricultural": 5201,
      "inent": 5202,
      "rem": 5203,
      "Ġmix": 5204,
      "Ġlik": 5205,
      "Ġaren": 5206,
      "emic": 5207,
      "Ġbird": 5208,
      "Ġsalt": 5209,
      "Ġappeared": 5210,
      "ĠMil": 5211,
      "Ġslightly": 5212,
      "Ġecosystem": 5213,
      "unk": 5214,
      "Ġimpacts": 5215,
      "Ġliquid": 5216,
      "Ġstone": 5217,
      "Ġcareer": 5218,
      "Ġadvance": 5219,
      "Ġexcellent": 5220,
      "band": 5221,
      "ses": 5222,
      "ĠSou": 5223,
      "Ġsignal": 5224,
      "Ġsamples": 5225,
      "Ġperman": 5226,
      "Ġbow": 5227,
      "ĠFurther": 5228,
      "Ġinterests": 5229,
      "ĠPacific": 5230,
      "Ġtopics": 5231,
      "Ġdomestic": 5232,
      "ested": 5233,
      "anta": 5234,
      "othing": 5235,
      "Ġcharacters": 5236,
      "RI": 5237,
      "Ġhospital": 5238,
      "state": 5239,
      "Ġplayed": 5240,
      "ĠColumb": 5241,
      "Ġfocused": 5242,
      "Ġattacks": 5243,
      "ĠClass": 5244,
      "Ġtrain": 5245,
      "Ġpil": 5246,
      "Ġrefers": 5247,
      "Ġotherwise": 5248,
      "Ġhundreds": 5249,
      "Ġrecognized": 5250,
      "Ġcrops": 5251,
      "Ġpaid": 5252,
      "ĠCatholic": 5253,
      "ĠBook": 5254,
      "rolog": 5255,
      "Ġaffects": 5256,
      "ĠDise": 5257,
      "Ġkm": 5258,
      "Ġreform": 5259,
      "Ġfamiliar": 5260,
      "hma": 5261,
      "that": 5262,
      "Ġsyn": 5263,
      "Ġpark": 5264,
      "ometimes": 5265,
      "Ġknew": 5266,
      "name": 5267,
      "alian": 5268,
      "Ġsubstant": 5269,
      "Ġtitle": 5270,
      "Ġfaster": 5271,
      "Ġheight": 5272,
      "ĠCle": 5273,
      "body": 5274,
      "Ġgoods": 5275,
      "Ġviews": 5276,
      "Ġconvent": 5277,
      "ĠBen": 5278,
      "Ġhaz": 5279,
      "Ġmuscles": 5280,
      "ĠElect": 5281,
      "Ġcontem": 5282,
      "Ġfollows": 5283,
      "Ġcontinuous": 5284,
      "Ġsubjects": 5285,
      "ĠTexas": 5286,
      "ĠBoth": 5287,
      "ensus": 5288,
      "Ġpray": 5289,
      "Ġapparent": 5290,
      "Ġdiscovery": 5291,
      "Ġvital": 5292,
      "Ġcert": 5293,
      "Ġwestern": 5294,
      "Ġincreasingly": 5295,
      "chers": 5296,
      "Ġspend": 5297,
      "Ġrepresents": 5298,
      "ded": 5299,
      "van": 5300,
      "Ġwet": 5301,
      "ĠInformation": 5302,
      "ĠFranc": 5303,
      "Ġofficials": 5304,
      "Ġvoice": 5305,
      "cest": 5306,
      "Ġallerg": 5307,
      "ĠConstitution": 5308,
      "Ġgovernments": 5309,
      "Ġclosely": 5310,
      "Ġastron": 5311,
      "Ġwalls": 5312,
      "Ġmort": 5313,
      "Ġalt": 5314,
      "ague": 5315,
      "No": 5316,
      "Ġmarine": 5317,
      "ĠCompany": 5318,
      "Te": 5319,
      "ipped": 5320,
      "igenous": 5321,
      "ION": 5322,
      "oral": 5323,
      "Ġmetab": 5324,
      "ĠNor": 5325,
      "Ġnations": 5326,
      "Ġpaint": 5327,
      "Ġdisapp": 5328,
      "Ġinstruction": 5329,
      "?âĢĿ": 5330,
      "Ġportion": 5331,
      "Ġcouple": 5332,
      "37": 5333,
      "Ġweap": 5334,
      "Ġroll": 5335,
      "Ġtreatments": 5336,
      "Ġvent": 5337,
      "Ġstated": 5338,
      "Ġleaving": 5339,
      "ĠUp": 5340,
      "Ġliver": 5341,
      "ĠBC": 5342,
      "ĠWind": 5343,
      "Ġstudied": 5344,
      "Ġdocuments": 5345,
      "ĠIrish": 5346,
      "Ġtried": 5347,
      "Ġthin": 5348,
      "eters": 5349,
      "Ġdouble": 5350,
      "EL": 5351,
      "Ġmeasured": 5352,
      "Ġconcentration": 5353,
      "Ġnutrients": 5354,
      "ĠISBN": 5355,
      "ĠRobert": 5356,
      "500": 5357,
      "ĠMiddle": 5358,
      "44": 5359,
      "inding": 5360,
      "ĠHistor": 5361,
      "stood": 5362,
      "Ġgrown": 5363,
      "TS": 5364,
      "down": 5365,
      "Ġoral": 5366,
      "Ġkeeping": 5367,
      "Ġproteins": 5368,
      "More": 5369,
      "Ġinstrument": 5370,
      "itage": 5371,
      "aks": 5372,
      "Ġlose": 5373,
      "ĠTreat": 5374,
      "Ġplaying": 5375,
      "ĠSmith": 5376,
      "field": 5377,
      "Ġmamm": 5378,
      "Ġinvestment": 5379,
      "ĠGoogle": 5380,
      "attle": 5381,
      "ĠLake": 5382,
      "Ġtypical": 5383,
      "Ġmoral": 5384,
      "âĢĻ.": 5385,
      "ĠAD": 5386,
      "Ġtouch": 5387,
      "iest": 5388,
      "Ġvalid": 5389,
      "itness": 5390,
      "Ġpig": 5391,
      "Ġperiods": 5392,
      "ĠWild": 5393,
      "lers": 5394,
      "ĠCD": 5395,
      "eck": 5396,
      "Ġcontaining": 5397,
      "ga": 5398,
      "Ġfloor": 5399,
      "Ġrein": 5400,
      "ĠDef": 5401,
      "Ġfertil": 5402,
      "ĠSecond": 5403,
      "Ġsubsequ": 5404,
      "Ġconcerned": 5405,
      "MS": 5406,
      "yro": 5407,
      "ellect": 5408,
      "ĠPost": 5409,
      "Gen": 5410,
      "Ġexplained": 5411,
      "ÃŃ": 5412,
      "asive": 5413,
      "Ġclim": 5414,
      "isp": 5415,
      "Ġelev": 5416,
      "Ġfing": 5417,
      "Ġarms": 5418,
      "Ġfacilities": 5419,
      "Ġsed": 5420,
      "atever": 5421,
      "Ġstret": 5422,
      "Ġexternal": 5423,
      "ĠNature": 5424,
      "Ġmyth": 5425,
      "ĠOut": 5426,
      "Ġband": 5427,
      "racy": 5428,
      "Ġrapidly": 5429,
      "AP": 5430,
      "Ġimpossible": 5431,
      "Ġnaturally": 5432,
      "ĠJe": 5433,
      "ails": 5434,
      "Ġhelpful": 5435,
      "Ġformal": 5436,
      "Ġaccurate": 5437,
      "55": 5438,
      "Ġdiscussed": 5439,
      "88": 5440,
      "Ġselected": 5441,
      "Ġpump": 5442,
      "ompl": 5443,
      "ĠWomen": 5444,
      "ĠSea": 5445,
      "bi": 5446,
      "ĠLand": 5447,
      "Ġdirector": 5448,
      "celer": 5449,
      "Ġopinion": 5450,
      "liam": 5451,
      "mas": 5452,
      "alse": 5453,
      "ND": 5454,
      "ĠStand": 5455,
      "Ġvalu": 5456,
      "Ġfiles": 5457,
      "Ġsen": 5458,
      "Ġresidents": 5459,
      "Ġages": 5460,
      "ĠPers": 5461,
      "Ġtested": 5462,
      "ĠCanadian": 5463,
      "ĠLouis": 5464,
      "rastructure": 5465,
      "Ġnarrow": 5466,
      "Ġmoist": 5467,
      "ĠRights": 5468,
      "Ġju": 5469,
      "OT": 5470,
      "Ġnerv": 5471,
      "ctic": 5472,
      "ĠCommit": 5473,
      "Ġrural": 5474,
      "ĠOffice": 5475,
      "Ġmovements": 5476,
      "Ġmit": 5477,
      "Ġlatter": 5478,
      "Ġpu": 5479,
      "ario": 5480,
      "ĠLearning": 5481,
      "des": 5482,
      "Ġmoon": 5483,
      "Ġcomponent": 5484,
      "pat": 5485,
      "war": 5486,
      "Ġdistingu": 5487,
      "Ġlessons": 5488,
      "Ġvisible": 5489,
      "à¤": 5490,
      "ĠSuch": 5491,
      "ĠFoundation": 5492,
      "Ġtips": 5493,
      "Ġpure": 5494,
      "Ġjustice": 5495,
      "ĠSupp": 5496,
      "Ġcircumst": 5497,
      "During": 5498,
      "Ġsides": 5499,
      "sts": 5500,
      "Ġ1999": 5501,
      "Ġfunding": 5502,
      "Ġconscious": 5503,
      "Ġemployees": 5504,
      "Ġcrisis": 5505,
      "ĠMem": 5506,
      "ĠFlorida": 5507,
      "istan": 5508,
      "Ġneut": 5509,
      "icon": 5510,
      ".|": 5511,
      "32": 5512,
      "ĠControl": 5513,
      "nel": 5514,
      "ĠFam": 5515,
      "Ġpictures": 5516,
      "osph": 5517,
      "Ġmedications": 5518,
      "99": 5519,
      "Ġparties": 5520,
      "Ġsecondary": 5521,
      "eria": 5522,
      "Ġmuseum": 5523,
      "ulin": 5524,
      "Ġcurriculum": 5525,
      "ymph": 5526,
      "osc": 5527,
      "iled": 5528,
      "Ġadding": 5529,
      "Ġdut": 5530,
      "ĠConf": 5531,
      "Ġcognitive": 5532,
      "olf": 5533,
      "ĠData": 5534,
      "Ġ2018": 5535,
      "Ġabuse": 5536,
      "Ġpregnancy": 5537,
      "Ġtasks": 5538,
      "Ġpoet": 5539,
      "Ġargument": 5540,
      "BC": 5541,
      "Ġaccomp": 5542,
      "Ġharvest": 5543,
      "zy": 5544,
      "Ġdepends": 5545,
      "ĠJud": 5546,
      "Ġprecise": 5547,
      "Ġdatabase": 5548,
      "ny": 5549,
      "Ġregional": 5550,
      "Ġshel": 5551,
      "Ġimmun": 5552,
      "Ġaccepted": 5553,
      "spec": 5554,
      "pass": 5555,
      "long": 5556,
      "icks": 5557,
      "Ġvehicle": 5558,
      "46": 5559,
      "ĠHenry": 5560,
      "Ġvillage": 5561,
      "ĠManagement": 5562,
      "Ġfruits": 5563,
      "Ġnewsp": 5564,
      "Ġadvoc": 5565,
      "Another": 5566,
      "Ind": 5567,
      "Ġdescribes": 5568,
      "ini": 5569,
      "ĠAnother": 5570,
      "Ġintroduction": 5571,
      "dden": 5572,
      "Ġcrim": 5573,
      "Ġhouses": 5574,
      "Ġaccompl": 5575,
      "Ġsecure": 5576,
      "Ġunlike": 5577,
      "ava": 5578,
      "ĠAlex": 5579,
      "Ġpretty": 5580,
      "Ġroots": 5581,
      "Ġsets": 5582,
      "My": 5583,
      "ĠGroup": 5584,
      "Ġapart": 5585,
      "Im": 5586,
      "ibl": 5587,
      "fall": 5588,
      "Ġexchange": 5589,
      "Ġdeliver": 5590,
      "aria": 5591,
      "ĠDel": 5592,
      "ificial": 5593,
      "rust": 5594,
      "orrow": 5595,
      "Ġoriginally": 5596,
      "umber": 5597,
      "Ġraise": 5598,
      "ĠReview": 5599,
      "ascular": 5600,
      "liament": 5601,
      "Ġsurvival": 5602,
      "Ġmillions": 5603,
      "76": 5604,
      "Ġcolors": 5605,
      "Ġphone": 5606,
      "ĠAustralian": 5607,
      "Ġregularly": 5608,
      "Ġfrag": 5609,
      "Ġfigures": 5610,
      "Ġtiny": 5611,
      "Ġprinciple": 5612,
      "clop": 5613,
      "DF": 5614,
      "Ġod": 5615,
      "ĠScient": 5616,
      "ĠLibrary": 5617,
      "De": 5618,
      "gment": 5619,
      "ĠCommon": 5620,
      "ĠDan": 5621,
      "Ġtraffic": 5622,
      "Ġfeelings": 5623,
      "Ġcalls": 5624,
      "hi": 5625,
      "Ġ45": 5626,
      "ĠInstead": 5627,
      "ye": 5628,
      "esity": 5629,
      "Ġdecrease": 5630,
      "uilding": 5631,
      "Ġsudden": 5632,
      "ĠPsych": 5633,
      "agues": 5634,
      "plicated": 5635,
      "Ġtroops": 5636,
      "ĠUsing": 5637,
      "oster": 5638,
      "Ġmedium": 5639,
      "ibilities": 5640,
      "arr": 5641,
      "Ġslowly": 5642,
      "Ġlatest": 5643,
      "Ġancest": 5644,
      "ĠFederal": 5645,
      "ĠLike": 5646,
      "Ġopened": 5647,
      "Ġobtained": 5648,
      "Ġinfected": 5649,
      "Sc": 5650,
      "Ġfell": 5651,
      "Ġtow": 5652,
      "umin": 5653,
      "Ġcapable": 5654,
      "Ġsubstance": 5655,
      "Ġcomprehensive": 5656,
      "ĠVirginia": 5657,
      "Ġrou": 5658,
      "ING": 5659,
      "Ġscholars": 5660,
      "bert": 5661,
      "Ġexpensive": 5662,
      "Ġabsolute": 5663,
      "Ġhunt": 5664,
      "ĠLabor": 5665,
      "31": 5666,
      "ĠCarol": 5667,
      "Ġingred": 5668,
      "inet": 5669,
      "indu": 5670,
      "ĠSum": 5671,
      "Ġchann": 5672,
      "Ġsyndrome": 5673,
      "Ġera": 5674,
      "Ġrecognize": 5675,
      "hist": 5676,
      "Ġsan": 5677,
      "ada": 5678,
      "Ġperce": 5679,
      "prise": 5680,
      "Ġleadership": 5681,
      "Ġpossibly": 5682,
      "Ġcrucial": 5683,
      "ĠEnvironmental": 5684,
      "Dr": 5685,
      "Ġnan": 5686,
      "ĠNations": 5687,
      "Ġwarming": 5688,
      "Ġbrown": 5689,
      "Ġdiversity": 5690,
      "Ġrecy": 5691,
      "ocratic": 5692,
      "ĠDisc": 5693,
      "Ġclosed": 5694,
      "ĠMont": 5695,
      "ĠNav": 5696,
      ".;": 5697,
      "Ġstock": 5698,
      "quit": 5699,
      "pping": 5700,
      "vironments": 5701,
      "ĠTer": 5702,
      "Ġapprec": 5703,
      "ifies": 5704,
      "Ġagreement": 5705,
      "Ġincl": 5706,
      "Ġrecovery": 5707,
      "Ġlands": 5708,
      "anguage": 5709,
      "Ġadopted": 5710,
      "Ġdiam": 5711,
      "Ġrestrict": 5712,
      "Ġbot": 5713,
      "lements": 5714,
      "Ġlaun": 5715,
      "Ġstored": 5716,
      "inn": 5717,
      "ĠTHE": 5718,
      "Ġassemb": 5719,
      "Ġsuc": 5720,
      "Ġcardi": 5721,
      "Ġprocedures": 5722,
      "Ġrefuge": 5723,
      "Ġprices": 5724,
      "Ġchapter": 5725,
      "Ġcreative": 5726,
      "Ġ*": 5727,
      "inations": 5728,
      "ota": 5729,
      "Ġsoldiers": 5730,
      "Ġsuffering": 5731,
      "Other": 5732,
      "Ġflight": 5733,
      "Ġdream": 5734,
      "acts": 5735,
      "Ġcomputers": 5736,
      "Ġbones": 5737,
      "ĠTem": 5738,
      "Ġdistrict": 5739,
      "Ġimmig": 5740,
      "Ġlandscape": 5741,
      "Ġagencies": 5742,
      "Ġpossibility": 5743,
      "ircraft": 5744,
      "ĠGood": 5745,
      "ĠOx": 5746,
      "Ġspeaking": 5747,
      "ita": 5748,
      "ĠMicro": 5749,
      "Ġinflammation": 5750,
      "89": 5751,
      "ĠBro": 5752,
      "olve": 5753,
      "obe": 5754,
      "ĠStudies": 5755,
      "Ġwildlife": 5756,
      "Ġvaluable": 5757,
      "Ġproducing": 5758,
      "Ġtalking": 5759,
      "abil": 5760,
      "cture": 5761,
      "add": 5762,
      "Do": 5763,
      "osal": 5764,
      "Ġprotocol": 5765,
      "ĠBet": 5766,
      "Ġframework": 5767,
      "Ġinterview": 5768,
      "ĠMake": 5769,
      "Ġoutcomes": 5770,
      "Ġimper": 5771,
      "Ġextract": 5772,
      "Ġworse": 5773,
      "Ġroof": 5774,
      "86": 5775,
      "kins": 5776,
      "Ġdeaths": 5777,
      "Ġdriving": 5778,
      "Ġsurvive": 5779,
      "reed": 5780,
      "asp": 5781,
      "ogue": 5782,
      "Ġ31": 5783,
      "Ġdoctors": 5784,
      "Ġhttps": 5785,
      "rants": 5786,
      "49": 5787,
      "Ġgun": 5788,
      "Ġpossess": 5789,
      "idden": 5790,
      "Ġguidelines": 5791,
      "Ġrid": 5792,
      "Ġsky": 5793,
      "Ġwire": 5794,
      "ĠFe": 5795,
      "Ġagriculture": 5796,
      "Ġintellect": 5797,
      "Ġscript": 5798,
      "ĠChic": 5799,
      "ĠProv": 5800,
      "ĠExp": 5801,
      "Ġsuffer": 5802,
      "85": 5803,
      "LE": 5804,
      "iability": 5805,
      "Ġble": 5806,
      "ĠAtt": 5807,
      "Ġsmart": 5808,
      "Ġsensitive": 5809,
      "Ġmassive": 5810,
      "ĠCommittee": 5811,
      "See": 5812,
      "bing": 5813,
      "ooth": 5814,
      "Ġintake": 5815,
      "Ġ1980": 5816,
      "Ġadministration": 5817,
      "uke": 5818,
      "Ġmanaged": 5819,
      "Ġ1998": 5820,
      "ston": 5821,
      "ĠKh": 5822,
      "Ġtoler": 5823,
      "Ġdaughter": 5824,
      "Ġtal": 5825,
      "Ġsatell": 5826,
      "ml": 5827,
      "Ġrepeated": 5828,
      "Ġdin": 5829,
      "Ġedge": 5830,
      "Ġequival": 5831,
      "ĠJoseph": 5832,
      "rine": 5833,
      "ĠThose": 5834,
      "Ġdecade": 5835,
      "Ġunderstood": 5836,
      "Ġlabel": 5837,
      "wing": 5838,
      "stream": 5839,
      "Ġcoff": 5840,
      "Ġformat": 5841,
      "Ġnetworks": 5842,
      "Ġanswers": 5843,
      "Ġcandid": 5844,
      "Ġwants": 5845,
      "Ġrevealed": 5846,
      "osa": 5847,
      "Ġchart": 5848,
      "Ġunless": 5849,
      "ints": 5850,
      "Ġextensive": 5851,
      "Ġparam": 5852,
      "Ġappearance": 5853,
      "Ġexpressed": 5854,
      "ĠEmpire": 5855,
      "Se": 5856,
      "free": 5857,
      "ona": 5858,
      "Ġsick": 5859,
      "dered": 5860,
      "Ġselection": 5861,
      "anged": 5862,
      "ĠItaly": 5863,
      "tenance": 5864,
      "].": 5865,
      "ship": 5866,
      "zen": 5867,
      "ropical": 5868,
      "exp": 5869,
      "Ġsell": 5870,
      "ĠCamb": 5871,
      "Ġplate": 5872,
      "Ġphr": 5873,
      "Ġgenerate": 5874,
      "Ġfacilit": 5875,
      "Ġhousing": 5876,
      "Ġuniverse": 5877,
      "Ġreject": 5878,
      "Ġconstitution": 5879,
      "Ġaw": 5880,
      "ĠHam": 5881,
      "ĠKnow": 5882,
      "Ġacts": 5883,
      "Ġdescription": 5884,
      "Ġauthorities": 5885,
      "ĠTor": 5886,
      "ĠDiv": 5887,
      "Ġerror": 5888,
      "Ġnormally": 5889,
      "organ": 5890,
      "Ġmarriage": 5891,
      "Ġprevention": 5892,
      "ĠPM": 5893,
      "Ġsports": 5894,
      "Ġfounded": 5895,
      "Ġmulti": 5896,
      "Ġentirely": 5897,
      "olester": 5898,
      "Ġthor": 5899,
      "teen": 5900,
      "Ġmountain": 5901,
      "Ġtail": 5902,
      "Ġreaders": 5903,
      "tra": 5904,
      "Ġcreates": 5905,
      "Ġachieved": 5906,
      "Ġhorse": 5907,
      "HO": 5908,
      "ka": 5909,
      "itt": 5910,
      "ĠPower": 5911,
      "Ġinches": 5912,
      "Ġprem": 5913,
      "Ġrecip": 5914,
      ".âĢĻ": 5915,
      "Ġdedic": 5916,
      "Ġdust": 5917,
      "Ġminim": 5918,
      "Ġserver": 5919,
      "Ã¼": 5920,
      "Ġ<": 5921,
      "igation": 5922,
      "luding": 5923,
      "Ġdiverse": 5924,
      "Ġdepos": 5925,
      "Ġrub": 5926,
      "Ġfailed": 5927,
      "ki": 5928,
      "ansion": 5929,
      "alysis": 5930,
      "ĠGold": 5931,
      "Ġdesire": 5932,
      "Ġlisted": 5933,
      "Ġbusinesses": 5934,
      "Go": 5935,
      "Ġ>": 5936,
      "osm": 5937,
      "Ġdestroyed": 5938,
      "tage": 5939,
      "athy": 5940,
      "Ġdecline": 5941,
      "Ġreader": 5942,
      "Ġinsects": 5943,
      "ĠBur": 5944,
      "Ġexperiments": 5945,
      "itative": 5946,
      "Ġinfrastructure": 5947,
      "Ġbudget": 5948,
      "Ġax": 5949,
      "Ġsurf": 5950,
      "Ġsurve": 5951,
      "cling": 5952,
      "Ġafford": 5953,
      "Ġinternet": 5954,
      "ribed": 5955,
      "ĠAnn": 5956,
      "Ġcorpor": 5957,
      "Ġlifest": 5958,
      "agers": 5959,
      "Ġlibrary": 5960,
      "Ġchain": 5961,
      "Ġuns": 5962,
      "Ġprepare": 5963,
      "hemical": 5964,
      "Ġprincip": 5965,
      "Ġjourney": 5966,
      "roc": 5967,
      "Ġflag": 5968,
      "cher": 5969,
      "Ġtun": 5970,
      "Ġenvironments": 5971,
      "Ġremaining": 5972,
      "ĠEngine": 5973,
      "En": 5974,
      "ato": 5975,
      "ocracy": 5976,
      "Cont": 5977,
      "Ġadequ": 5978,
      "Ġtwice": 5979,
      "Ġdigest": 5980,
      "ĠRome": 5981,
      "olesterol": 5982,
      "Ġcars": 5983,
      "Ġantibiot": 5984,
      "omach": 5985,
      "using": 5986,
      "Ġvote": 5987,
      "eer": 5988,
      "icians": 5989,
      "Ġassistance": 5990,
      "Ġsentence": 5991,
      "Ġvaccine": 5992,
      "Ġfly": 5993,
      "Ġwear": 5994,
      "Ġdoubt": 5995,
      "ctive": 5996,
      "Ġcritic": 5997,
      "47": 5998,
      "edu": 5999,
      "ĠVict": 6000,
      "âĢĺ": 6001,
      "ĠLong": 6002,
      "Ġabund": 6003,
      "Ġamb": 6004,
      "Ġ2019": 6005,
      "Ġtransition": 6006,
      "Ġobtain": 6007,
      "Ġgall": 6008,
      "Ġsuitable": 6009,
      "Ġfoundation": 6010,
      "ĠGal": 6011,
      "Ġimproving": 6012,
      "Ġgather": 6013,
      "Ġunknown": 6014,
      "Ġgreatly": 6015,
      "Ġmarked": 6016,
      "Ġchoices": 6017,
      "Ġenhance": 6018,
      "DP": 6019,
      "ua": 6020,
      "ĠProfessor": 6021,
      "Ġhus": 6022,
      "....": 6023,
      "Ġfill": 6024,
      "Ġworldwide": 6025,
      "Ġextended": 6026,
      "Ġwave": 6027,
      "abits": 6028,
      "Ġinject": 6029,
      "cel": 6030,
      "ĠRad": 6031,
      "elled": 6032,
      "ensions": 6033,
      "uits": 6034,
      "ypes": 6035,
      "Ġindeed": 6036,
      "Ġtells": 6037,
      "ĠPub": 6038,
      "Ġshut": 6039,
      "Ġstruggle": 6040,
      "burg": 6041,
      "level": 6042,
      "rors": 6043,
      "ĠMag": 6044,
      "Ġstarts": 6045,
      "Ġelectronic": 6046,
      "Ġopening": 6047,
      "Ġlaboratory": 6048,
      "Ġstick": 6049,
      "ĠPeter": 6050,
      "Ġmur": 6051,
      "Ġneck": 6052,
      "inking": 6053,
      "Ġderived": 6054,
      "inction": 6055,
      "Ġengage": 6056,
      "apping": 6057,
      "Ġimplementation": 6058,
      "Ġstages": 6059,
      "ĠLab": 6060,
      "Ġtea": 6061,
      "ĠOnly": 6062,
      "ĠViet": 6063,
      "Ġmedication": 6064,
      "ipping": 6065,
      "CR": 6066,
      "arant": 6067,
      "Ġsupplies": 6068,
      "ĠAcademy": 6069,
      "no": 6070,
      "Ġunp": 6071,
      "normal": 6072,
      "Ġsharing": 6073,
      "Ġ2020": 6074,
      "Ġrank": 6075,
      "Ġproduces": 6076,
      "Ġorganized": 6077,
      "Ġgal": 6078,
      "Ġremind": 6079,
      "Ġharmful": 6080,
      "Ġcircumstances": 6081,
      "hand": 6082,
      "ĠYet": 6083,
      "Ġsupplement": 6084,
      "Ġstanding": 6085,
      "Ġfab": 6086,
      "ĠNorthern": 6087,
      "Ġ300": 6088,
      "Ġmobile": 6089,
      "kes": 6090,
      "ĠId": 6091,
      "throp": 6092,
      "Ġindex": 6093,
      "Ġgrav": 6094,
      "Ġwww": 6095,
      "Ġparalle": 6096,
      "Ġsweet": 6097,
      "iform": 6098,
      "ĠHall": 6099,
      "Ġseeing": 6100,
      "âĢĻ,": 6101,
      "being": 6102,
      "Ġacceler": 6103,
      "Ġdiscipl": 6104,
      "othe": 6105,
      "irty": 6106,
      "itan": 6107,
      "orter": 6108,
      "Ġbear": 6109,
      "ĠSouthern": 6110,
      "flow": 6111,
      "ĠCap": 6112,
      "ĠMa": 6113,
      "Ġphotograph": 6114,
      "Ġthousand": 6115,
      "Ġbehaviour": 6116,
      "called": 6117,
      "zil": 6118,
      "Ġaqu": 6119,
      "Ġsupports": 6120,
      "Ġvehicles": 6121,
      "Us": 6122,
      "Ġagency": 6123,
      "Read": 6124,
      "Ġstudying": 6125,
      "Ġbroken": 6126,
      "Ġintelligence": 6127,
      "Ġcalcium": 6128,
      "American": 6129,
      "icide": 6130,
      "Ġtransmission": 6131,
      "65": 6132,
      "Ġsight": 6133,
      "Ġgenerated": 6134,
      "Ġpull": 6135,
      "ĠBr": 6136,
      "ĠCancer": 6137,
      "etime": 6138,
      "ĠSol": 6139,
      "Ġtruly": 6140,
      "Ġmarried": 6141,
      "Ġnine": 6142,
      "ĠBre": 6143,
      "Ġ500": 6144,
      "Ġphilosophy": 6145,
      "CS": 6146,
      "itter": 6147,
      "Ġfixed": 6148,
      "ĠThrough": 6149,
      "Ġattend": 6150,
      "Ġlimits": 6151,
      "Ġconsid": 6152,
      "ĠParis": 6153,
      "mary": 6154,
      "Ġcatch": 6155,
      "Ġinner": 6156,
      "utch": 6157,
      "ĠSk": 6158,
      "ĠStat": 6159,
      "sey": 6160,
      "ett": 6161,
      "Ġships": 6162,
      "Ġoptim": 6163,
      "inity": 6164,
      "ĠSl": 6165,
      "Ġremark": 6166,
      "Ġ185": 6167,
      "ĠEss": 6168,
      "Ġfewer": 6169,
      "ctor": 6170,
      "antly": 6171,
      "Ġissued": 6172,
      "ioxide": 6173,
      "oto": 6174,
      "Ġhappy": 6175,
      "77": 6176,
      "Ġlots": 6177,
      "Ġknows": 6178,
      "ĠSpain": 6179,
      "isters": 6180,
      "then": 6181,
      "Ġvessels": 6182,
      "Ġaf": 6183,
      "Ġourselves": 6184,
      "Ġorganisms": 6185,
      "Ġcircuit": 6186,
      "but": 6187,
      "Ã¶": 6188,
      "Ġopposite": 6189,
      "Ġcolleagues": 6190,
      "ĠGlobal": 6191,
      "born": 6192,
      "Ġsuccessfully": 6193,
      "Ġemployment": 6194,
      "ora": 6195,
      "Ġaccounts": 6196,
      "Ġwindow": 6197,
      "Ġinjuries": 6198,
      "from": 6199,
      "Ġnurs": 6200,
      "Ġsupposed": 6201,
      "Ġshell": 6202,
      "Ġreplaced": 6203,
      "under": 6204,
      "ĠStreet": 6205,
      "Ġnecessarily": 6206,
      "Ġdomain": 6207,
      "Ġfilled": 6208,
      "Ġfalse": 6209,
      "Ġroutine": 6210,
      "nce": 6211,
      "Ġfasc": 6212,
      "aser": 6213,
      "Ġchildhood": 6214,
      "oned": 6215,
      "ĠBank": 6216,
      "anda": 6217,
      "Ġsteel": 6218,
      "Ġearthqu": 6219,
      "erals": 6220,
      "igned": 6221,
      "ih": 6222,
      "Ġjoin": 6223,
      "UR": 6224,
      "Ã³": 6225,
      "ĠCult": 6226,
      "ĠOF": 6227,
      "izer": 6228,
      "Ġlocations": 6229,
      "Ġ1970": 6230,
      "Ġconsistent": 6231,
      "wo": 6232,
      "ĠIN": 6233,
      "gent": 6234,
      "Ġelectron": 6235,
      "Ġdefe": 6236,
      "Ġrepresented": 6237,
      "eper": 6238,
      "ena": 6239,
      "Ġcounty": 6240,
      "ĠAbout": 6241,
      "Ġdoor": 6242,
      "Ġimmediate": 6243,
      "Ġkidney": 6244,
      "last": 6245,
      "Ġwish": 6246,
      "Ġplays": 6247,
      "ditionally": 6248,
      "heast": 6249,
      "ĠPan": 6250,
      "ĠItalian": 6251,
      "Ġcourses": 6252,
      "Ġsequence": 6253,
      "Ġaircraft": 6254,
      "ĠCamp": 6255,
      "Ġflav": 6256,
      "cyclop": 6257,
      "bur": 6258,
      "uation": 6259,
      "Ġsod": 6260,
      "Ġstomach": 6261,
      "ĠMo": 6262,
      "ĠUSA": 6263,
      "top": 6264,
      "Ġeastern": 6265,
      "Ġlisten": 6266,
      "Ġarchitecture": 6267,
      "Ġpron": 6268,
      "cules": 6269,
      "Ġcloud": 6270,
      "Ġdecide": 6271,
      "Ġshift": 6272,
      "riting": 6273,
      "Stud": 6274,
      "Ġwalking": 6275,
      "teries": 6276,
      "Ġyounger": 6277,
      "Ne": 6278,
      "Ġforests": 6279,
      "ĠClin": 6280,
      "Ġalle": 6281,
      "Ġcarb": 6282,
      "ashion": 6283,
      "Ġinteraction": 6284,
      "Ġtall": 6285,
      "ĠHome": 6286,
      "Ġunus": 6287,
      "Ġintervention": 6288,
      "Ġwaves": 6289,
      "ĠReport": 6290,
      "ĠParty": 6291,
      "Ġinstitution": 6292,
      "Ġhydrogen": 6293,
      "Ġaudience": 6294,
      "ĠMad": 6295,
      "Ġenable": 6296,
      "Ġcarefully": 6297,
      "Ġcultures": 6298,
      "Ġdomin": 6299,
      "ĠRob": 6300,
      "Ġcloser": 6301,
      "pet": 6302,
      "Ġislands": 6303,
      "ĠExt": 6304,
      "Ġcentre": 6305,
      "Ġsoul": 6306,
      "ĠDen": 6307,
      "Ġsmoke": 6308,
      "Ġends": 6309,
      "ĠAny": 6310,
      "Ġdifficulty": 6311,
      "Ġprofessionals": 6312,
      "Ġnerve": 6313,
      "Ġvariable": 6314,
      "Ġsolve": 6315,
      "Ġgluc": 6316,
      "Ġturns": 6317,
      "ĠIII": 6318,
      "ĠOh": 6319,
      "Since": 6320,
      "Ġunable": 6321,
      "azing": 6322,
      "ĠChicago": 6323,
      "Ġprompt": 6324,
      "Ġarrived": 6325,
      "Ġdedicated": 6326,
      "ighter": 6327,
      "ĠĊ": 6328,
      "Ġtwenty": 6329,
      "Ġ1997": 6330,
      "bran": 6331,
      "Ġgone": 6332,
      "Ġmanufacturing": 6333,
      "Ġtransportation": 6334,
      "ĠValley": 6335,
      "Ġpowers": 6336,
      "lets": 6337,
      "Ġdiscrimination": 6338,
      "Ġfossil": 6339,
      "Ġreven": 6340,
      "iration": 6341,
      "eers": 6342,
      "heim": 6343,
      "Ġcomposition": 6344,
      "Ġasthma": 6345,
      "zed": 6346,
      "Ġdebate": 6347,
      "Ġepid": 6348,
      "Ġoverl": 6349,
      "Ġoutl": 6350,
      "Ġsupporting": 6351,
      "ĠAC": 6352,
      "Ġremote": 6353,
      "ocy": 6354,
      "Ġexists": 6355,
      "Ġindicates": 6356,
      "Ġconventional": 6357,
      "ĠÐ": 6358,
      "ĠClimate": 6359,
      "Ġgrew": 6360,
      "rat": 6361,
      "ĠIP": 6362,
      "Ġsimpl": 6363,
      "Ġstroke": 6364,
      "Ġacids": 6365,
      "Ġmagnetic": 6366,
      "ĠZeal": 6367,
      "ĠStudy": 6368,
      "ums": 6369,
      "Ġbeneficial": 6370,
      "Can": 6371,
      "Ġhur": 6372,
      "Ġzone": 6373,
      "Ġpermanent": 6374,
      "onia": 6375,
      "Ġdioxide": 6376,
      "ented": 6377,
      "ĠIll": 6378,
      "Ġpurchase": 6379,
      "ola": 6380,
      "Ġcolour": 6381,
      "ĠDisease": 6382,
      "Ġrising": 6383,
      "Ġlies": 6384,
      "Ġleaf": 6385,
      "ĠMichael": 6386,
      "ĠRoyal": 6387,
      "Ġstands": 6388,
      "Ġconsumers": 6389,
      "Ġmechanism": 6390,
      "79": 6391,
      "rey": 6392,
      "Ġvoc": 6393,
      "stein": 6394,
      "Ġterritory": 6395,
      "Ġjoined": 6396,
      "Ġhypothes": 6397,
      "umes": 6398,
      "ferent": 6399,
      "Ġdrawing": 6400,
      "Ġtons": 6401,
      "Ġrhy": 6402,
      "ĠSciences": 6403,
      "Ġinhib": 6404,
      "Ġmaintenance": 6405,
      "ĠIndians": 6406,
      "Ġconcrete": 6407,
      "ĠAst": 6408,
      "Ġstable": 6409,
      "ĠEnd": 6410,
      "Ġwriter": 6411,
      "Ġfunds": 6412,
      "Ġbrand": 6413,
      "gans": 6414,
      "Ġclust": 6415,
      "Ġpurs": 6416,
      "Ġmixed": 6417,
      "ĠPenn": 6418,
      "Ġexplo": 6419,
      "ester": 6420,
      "orith": 6421,
      "Ġshot": 6422,
      "Ġreserv": 6423,
      "Ġhandle": 6424,
      "Ġresponses": 6425,
      "ĠSa": 6426,
      "Ġsubs": 6427,
      "Ġboost": 6428,
      "Ġmice": 6429,
      "Ġskill": 6430,
      "Ġultimately": 6431,
      "fortunately": 6432,
      "Ġpercentage": 6433,
      "Ġchosen": 6434,
      "Ġusage": 6435,
      "Ġdownload": 6436,
      "Ġcircle": 6437,
      "Ġaward": 6438,
      "Ġyield": 6439,
      "Ġhoriz": 6440,
      "Ġath": 6441,
      "itual": 6442,
      "orous": 6443,
      "Ġprove": 6444,
      "Ġaccum": 6445,
      "ĠMer": 6446,
      "Ġneuro": 6447,
      "erior": 6448,
      "ĠEth": 6449,
      "Ġoccasion": 6450,
      "Ġcultiv": 6451,
      "ĠAdminist": 6452,
      "Ġcommunicate": 6453,
      "Ġcomparison": 6454,
      "hop": 6455,
      "ifications": 6456,
      "Ġinstruments": 6457,
      "Ġtaste": 6458,
      "ĠRichard": 6459,
      "rd": 6460,
      "Ġdensity": 6461,
      "peror": 6462,
      "ĠZealand": 6463,
      "Ġaccident": 6464,
      "ĠCare": 6465,
      "Ġwhereas": 6466,
      "ĠMill": 6467,
      "Ġattached": 6468,
      "how": 6469,
      "uter": 6470,
      "inson": 6471,
      "Ġvulnerable": 6472,
      "comm": 6473,
      "ugh": 6474,
      "Ġwitness": 6475,
      "Ġcholesterol": 6476,
      "Ġbutter": 6477,
      "Ġhealthcare": 6478,
      "Ġobservations": 6479,
      "ĠSecurity": 6480,
      "Ġobst": 6481,
      "Ġguarant": 6482,
      "Ġcustomers": 6483,
      "Ġpus": 6484,
      "ĠTimes": 6485,
      "ĠCa": 6486,
      "Ġcomments": 6487,
      "ĠWik": 6488,
      "ĠExpl": 6489,
      "Ġfighting": 6490,
      "Pe": 6491,
      "ĠNut": 6492,
      "Ġexplanation": 6493,
      "Ġcoffee": 6494,
      "Ġhem": 6495,
      "ediatric": 6496,
      "ĠBrown": 6497,
      "lder": 6498,
      "hered": 6499,
      "Ġpra": 6500,
      "rovers": 6501,
      "Ġspok": 6502,
      "Ġfold": 6503,
      "ĠCat": 6504,
      "Ġraw": 6505,
      "Ġrequest": 6506,
      "Ġnegot": 6507,
      "Ġhabits": 6508,
      "Ġresolution": 6509,
      "ols": 6510,
      "ĠGeorg": 6511,
      "Ġmanif": 6512,
      "ĠConst": 6513,
      "OL": 6514,
      "Ġmac": 6515,
      "Ġresulted": 6516,
      "Ġpolitics": 6517,
      "ĠKingdom": 6518,
      "tic": 6519,
      "Ġ36": 6520,
      "Ġborder": 6521,
      "Ġmatters": 6522,
      "while": 6523,
      "ĠBab": 6524,
      "Ġscene": 6525,
      "abul": 6526,
      "usal": 6527,
      "ĠNatural": 6528,
      "Ġequivalent": 6529,
      "ivery": 6530,
      "Ġobesity": 6531,
      "Ġlifestyle": 6532,
      "sen": 6533,
      "Ġrelation": 6534,
      "Ġparticipate": 6535,
      "EP": 6536,
      "ĠTime": 6537,
      "Ġestimate": 6538,
      "ĠFree": 6539,
      "Ġteen": 6540,
      "such": 6541,
      "yal": 6542,
      "omer": 6543,
      "Ġsignals": 6544,
      "Ġemployed": 6545,
      "Ġbiggest": 6546,
      "pan": 6547,
      "Ġdental": 6548,
      "earchers": 6549,
      "Ġphysics": 6550,
      "ĠPop": 6551,
      "05": 6552,
      "Ġdemonstrated": 6553,
      "ĠVis": 6554,
      "ĠBrazil": 6555,
      "Ġbread": 6556,
      "Ġtrained": 6557,
      "Ġrelax": 6558,
      "Ġpregnant": 6559,
      "Ġratio": 6560,
      "Ġnone": 6561,
      "otion": 6562,
      "Ġshop": 6563,
      "Ġdistur": 6564,
      "ĠColumbia": 6565,
      "ĠSing": 6566,
      "ĠCy": 6567,
      "Ġexamine": 6568,
      "Ġemotions": 6569,
      "Ġacknow": 6570,
      "Ġfunctional": 6571,
      "ĠGet": 6572,
      "Ġlayers": 6573,
      "roduction": 6574,
      "Ġpersist": 6575,
      "ups": 6576,
      "Ġunderlying": 6577,
      "Ġindependence": 6578,
      "ĠAdd": 6579,
      "irds": 6580,
      "adder": 6581,
      "ĠHaw": 6582,
      "Ġkit": 6583,
      "Ġmeters": 6584,
      "rite": 6585,
      "Ġcontamin": 6586,
      "phone": 6587,
      "ĠBoard": 6588,
      "Ġmolecules": 6589,
      "Int": 6590,
      "bour": 6591,
      "Ġprev": 6592,
      "Ġcrow": 6593,
      "Ġfract": 6594,
      "Ġwilling": 6595,
      "Ġbridge": 6596,
      "stract": 6597,
      "Ġchrom": 6598,
      "Ġneither": 6599,
      "Ġ1960": 6600,
      "Ġsucceed": 6601,
      "Ġsections": 6602,
      "ĠRom": 6603,
      "ĠOcean": 6604,
      "Ġregulations": 6605,
      "Ġnearby": 6606,
      "Ġcamera": 6607,
      "Ġconnections": 6608,
      "ourage": 6609,
      "ĠAgricult": 6610,
      "Ġrice": 6611,
      "espread": 6612,
      "craft": 6613,
      "Ġwhatever": 6614,
      "ĠScott": 6615,
      "95": 6616,
      "uh": 6617,
      "Ġcompounds": 6618,
      "Ġmild": 6619,
      "ĠDet": 6620,
      "Ġholds": 6621,
      "Ġpainting": 6622,
      "Ġcards": 6623,
      "Ġconclusion": 6624,
      "Ġwasn": 6625,
      "Ġtrip": 6626,
      "isk": 6627,
      "Ġgram": 6628,
      "Ġforth": 6629,
      "Ġ1996": 6630,
      "Ġelection": 6631,
      "ictionary": 6632,
      "Ġethnic": 6633,
      "Ġdefine": 6634,
      "Ġhistoric": 6635,
      "Ġsacr": 6636,
      "Ġcommitted": 6637,
      "ĠFrank": 6638,
      "Ġcontained": 6639,
      "Ġconfidence": 6640,
      "Ġestimates": 6641,
      "Ġille": 6642,
      "Ġdoi": 6643,
      "Ġuniversity": 6644,
      "ployment": 6645,
      "Ġdrawn": 6646,
      "Ġrecognition": 6647,
      "va": 6648,
      "Ġholid": 6649,
      "Don": 6650,
      "ribe": 6651,
      "Ġentered": 6652,
      "ĠExper": 6653,
      "Ġlegislation": 6654,
      "ults": 6655,
      "Ġregul": 6656,
      "Ġintellectual": 6657,
      "arn": 6658,
      "Ġtraum": 6659,
      "Ġlegs": 6660,
      "Ġcalories": 6661,
      "Ġvoltage": 6662,
      "arsh": 6663,
      "ditional": 6664,
      "ude": 6665,
      "ala": 6666,
      "Ġgap": 6667,
      "opic": 6668,
      "ĠWhe": 6669,
      "43": 6670,
      "Ġboys": 6671,
      "ĠRevolution": 6672,
      "Ġcup": 6673,
      "Ġprohib": 6674,
      "Ġinsulin": 6675,
      "scale": 6676,
      "Not": 6677,
      "Ġmanip": 6678,
      "Ġpreval": 6679,
      "Ġmechanisms": 6680,
      "Ġinstructions": 6681,
      "Ġ75": 6682,
      "itudes": 6683,
      "LA": 6684,
      "Ġcart": 6685,
      "imens": 6686,
      "Ġrow": 6687,
      "azine": 6688,
      "agon": 6689,
      "Ġregist": 6690,
      "umps": 6691,
      "Ġpublication": 6692,
      "Ġfrequent": 6693,
      "ĠWood": 6694,
      "ĠFort": 6695,
      "plant": 6696,
      "ĠGuide": 6697,
      "Ġfabric": 6698,
      "87": 6699,
      "abled": 6700,
      "Ġspaces": 6701,
      "Ġnoise": 6702,
      "Ġpsychological": 6703,
      "01": 6704,
      "oln": 6705,
      "Ġtrials": 6706,
      "Ġsheet": 6707,
      "Ġdelay": 6708,
      "Ġcutting": 6709,
      "Ġdemonstrate": 6710,
      "alm": 6711,
      "earing": 6712,
      "Ġbreathing": 6713,
      "Ġcompens": 6714,
      "Ġpassage": 6715,
      "ĠMen": 6716,
      "Ġhero": 6717,
      "riers": 6718,
      "etics": 6719,
      "Ġtub": 6720,
      "ittle": 6721,
      "Ġrecept": 6722,
      "Ġtexts": 6723,
      "fish": 6724,
      "Ġtheories": 6725,
      "Ġgenerations": 6726,
      "Ġdiagnosed": 6727,
      "Ġviruses": 6728,
      "ĠDesign": 6729,
      "Let": 6730,
      "Ġsail": 6731,
      "irt": 6732,
      "Ġimprovement": 6733,
      "Ġbattery": 6734,
      "ĠServices": 6735,
      "Ġcriminal": 6736,
      "Ġye": 6737,
      "ĠMD": 6738,
      "ĠNative": 6739,
      "Ġpounds": 6740,
      "Ġmood": 6741,
      "Ġsmoking": 6742,
      "Ġbehaviors": 6743,
      "Ġdollars": 6744,
      "word": 6745,
      "Ġended": 6746,
      "Ġstring": 6747,
      "Ġ1995": 6748,
      "Ġmicrob": 6749,
      "Ġexercises": 6750,
      "Ġmosquit": 6751,
      "icious": 6752,
      "Ġagreed": 6753,
      "Ġveter": 6754,
      "Ġfer": 6755,
      "Ġcoastal": 6756,
      "Ġske": 6757,
      "Ġmaps": 6758,
      "ĠAge": 6759,
      "Ġcomposed": 6760,
      "ĠScot": 6761,
      "Ġruns": 6762,
      "hav": 6763,
      "Ġbeings": 6764,
      "ĠPet": 6765,
      "operation": 6766,
      "Ġarrest": 6767,
      "Ġswim": 6768,
      "Figure": 6769,
      "Ġmolecular": 6770,
      "ĠKorea": 6771,
      "Ġpup": 6772,
      "Ġserving": 6773,
      "Ġparallel": 6774,
      "Ġpapers": 6775,
      "ifts": 6776,
      "Ġorient": 6777,
      "Ġpoem": 6778,
      "Ġexpansion": 6779,
      "Ġartists": 6780,
      "Ġenemy": 6781,
      "icit": 6782,
      "Ġoblig": 6783,
      "Ġentry": 6784,
      "Ġclaimed": 6785,
      "Ġdanger": 6786,
      "ĠVictor": 6787,
      "rary": 6788,
      "asters": 6789,
      "Ġforget": 6790,
      "Ġdeclared": 6791,
      "Ġ^": 6792,
      "Ġapproved": 6793,
      "Ġdestruction": 6794,
      "ĠKeep": 6795,
      "Ġongoing": 6796,
      "Ġmode": 6797,
      "Ġped": 6798,
      "anes": 6799,
      "Ġmand": 6800,
      "sets": 6801,
      "itely": 6802,
      "Ġcompetition": 6803,
      "41": 6804,
      "BS": 6805,
      "Ġahead": 6806,
      "iodiversity": 6807,
      "Ġglucose": 6808,
      "Lear": 6809,
      "Of": 6810,
      "ĠEastern": 6811,
      "Ġburning": 6812,
      "Ġalgorith": 6813,
      "usiness": 6814,
      "Ġgreenhouse": 6815,
      "hent": 6816,
      "isdom": 6817,
      "Ġsole": 6818,
      "Ġscan": 6819,
      "ĠHave": 6820,
      "Note": 6821,
      "TM": 6822,
      "Ġaer": 6823,
      "Ġhun": 6824,
      "Ġlymph": 6825,
      "idity": 6826,
      "acher": 6827,
      "Ġrelief": 6828,
      "Ġpositions": 6829,
      "Rec": 6830,
      "Ġment": 6831,
      "ĠGard": 6832,
      "Ġholding": 6833,
      "Ġarrange": 6834,
      "Ġvictims": 6835,
      "CD": 6836,
      "Ġblow": 6837,
      "Ġstreet": 6838,
      "ĠEc": 6839,
      "Ġmatch": 6840,
      "iti": 6841,
      "Ġspending": 6842,
      "Ġsomewhat": 6843,
      "ĠConn": 6844,
      "liest": 6845,
      "Ġtissues": 6846,
      "Bl": 6847,
      "itivity": 6848,
      "uts": 6849,
      "Ġalter": 6850,
      "Ġeveryday": 6851,
      "Ġwidespread": 6852,
      "Ġbeliefs": 6853,
      "66": 6854,
      "First": 6855,
      "nee": 6856,
      "ohyd": 6857,
      "Ġmerely": 6858,
      "gov": 6859,
      "Ġchick": 6860,
      "Ġflo": 6861,
      "hesis": 6862,
      "fit": 6863,
      "reated": 6864,
      "orph": 6865,
      "Ġblocks": 6866,
      "Ġplane": 6867,
      "Ġconstructed": 6868,
      "ĠâĨ": 6869,
      "IL": 6870,
      "Ġrocks": 6871,
      "Ġdepart": 6872,
      "Ġphoto": 6873,
      "ulty": 6874,
      "Ġmaintaining": 6875,
      "ĠPy": 6876,
      "ĠEqu": 6877,
      "Ġundert": 6878,
      "ĠÎ": 6879,
      "Ġfro": 6880,
      "Ġcapture": 6881,
      "Ġsought": 6882,
      "Ġrivers": 6883,
      "ĠStar": 6884,
      "Ġoperate": 6885,
      "Ġsignificance": 6886,
      "asty": 6887,
      "Ġartificial": 6888,
      "Ġneighborhood": 6889,
      "Ġoutbre": 6890,
      "Ġearn": 6891,
      "everal": 6892,
      "Ġterror": 6893,
      "Ġdamaged": 6894,
      "Ġhusband": 6895,
      "stone": 6896,
      "Ġinteractions": 6897,
      "Ġdebt": 6898,
      "urrent": 6899,
      "ĠColor": 6900,
      "oston": 6901,
      "Ġpair": 6902,
      "Ġdrain": 6903,
      "opes": 6904,
      "Ġassociation": 6905,
      "Ġpanel": 6906,
      "ĠForm": 6907,
      "weight": 6908,
      "Ġmachines": 6909,
      "Ġsettings": 6910,
      "Ġphysician": 6911,
      "ĠMartin": 6912,
      "Comp": 6913,
      "Ġtel": 6914,
      "ano": 6915,
      "ether": 6916,
      "roud": 6917,
      "Ġrealize": 6918,
      "Ġrarely": 6919,
      "42": 6920,
      "Ġtut": 6921,
      "Ġfeeding": 6922,
      "gs": 6923,
      "Ġparticipation": 6924,
      "Ġbrings": 6925,
      "Ġfeedback": 6926,
      "aked": 6927,
      "Ġcrew": 6928,
      "Ġindustries": 6929,
      "Even": 6930,
      "cons": 6931,
      "ĠBig": 6932,
      "ella": 6933,
      "ĠEarly": 6934,
      "ĠAtlantic": 6935,
      "reek": 6936,
      "Ġintegrated": 6937,
      "Ġshad": 6938,
      "Ġpresentation": 6939,
      "Ġcryst": 6940,
      "Ġconven": 6941,
      "aine": 6942,
      "Ġwriters": 6943,
      "Ġlaunched": 6944,
      "Ġcats": 6945,
      "ĠProp": 6946,
      "aph": 6947,
      "Ġassume": 6948,
      "Ġzero": 6949,
      "forcement": 6950,
      "herent": 6951,
      "Ġevaluation": 6952,
      "Ste": 6953,
      "Ġfourth": 6954,
      "OC": 6955,
      "Over": 6956,
      "Ġinsert": 6957,
      "Ġdefend": 6958,
      "Ġdelivery": 6959,
      "Ġframe": 6960,
      "ĠCarolina": 6961,
      "Ġdisaster": 6962,
      "ishment": 6963,
      "Ġarchae": 6964,
      "Ġlake": 6965,
      "Ġdivision": 6966,
      "Ġreactions": 6967,
      "Ġcrime": 6968,
      "Ġturning": 6969,
      "Ġtrouble": 6970,
      "Ġinstalled": 6971,
      "Ġjudge": 6972,
      "iah": 6973,
      "Ġcontrovers": 6974,
      "----": 6975,
      "Ġfulf": 6976,
      "Ġboy": 6977,
      "Ġ150": 6978,
      "ĠAngel": 6979,
      "Ġfiber": 6980,
      "eless": 6981,
      "Ġorgans": 6982,
      "Ġfever": 6983,
      "Ġmarkets": 6984,
      "Ġconsiderable": 6985,
      "Ġdefense": 6986,
      "Ġstrongly": 6987,
      "Ġweapons": 6988,
      "IR": 6989,
      "ĠFather": 6990,
      "Ġsmooth": 6991,
      "Ġinvolving": 6992,
      "Ġseemed": 6993,
      "Ġcolumn": 6994,
      "Ġreliable": 6995,
      "making": 6996,
      "osion": 6997,
      "ureau": 6998,
      "Ġ400": 6999,
      "Ġtransp": 7000,
      "73": 7001,
      "esis": 7002,
      "yles": 7003,
      "Ġlegisl": 7004,
      "abulary": 7005,
      "Ġphosph": 7006,
      "Ġbiology": 7007,
      "Ġputting": 7008,
      "ĠOrganization": 7009,
      "ĠDistrict": 7010,
      "Ġroute": 7011,
      "ĠChange": 7012,
      "Ġcovers": 7013,
      "Ġcategory": 7014,
      "ĠPract": 7015,
      "Ġobjective": 7016,
      "Ġembry": 7017,
      "IM": 7018,
      "ĠTake": 7019,
      "ounded": 7020,
      "Ġaccessible": 7021,
      "Ġvs": 7022,
      "ĠIran": 7023,
      "ĠHoly": 7024,
      "Ġthanks": 7025,
      "Ġseeking": 7026,
      "Ġkilomet": 7027,
      "Ġfashion": 7028,
      "Ġmembran": 7029,
      "Ġloved": 7030,
      "84": 7031,
      "ocation": 7032,
      "Ġmeal": 7033,
      "ishop": 7034,
      "Ġsigned": 7035,
      "ĠEdward": 7036,
      "Ġvisitors": 7037,
      "Ġguidance": 7038,
      "%)": 7039,
      "Ġrig": 7040,
      "Ġreceiving": 7041,
      "Ġindicated": 7042,
      "itamin": 7043,
      "ĠMoon": 7044,
      "Ġcontemporary": 7045,
      "yroid": 7046,
      "ocial": 7047,
      "Ġneur": 7048,
      "Ġproportion": 7049,
      "Ġcategories": 7050,
      "ĠFamily": 7051,
      "Ġfu": 7052,
      "Ġplus": 7053,
      "Ġpoison": 7054,
      "Ġminute": 7055,
      "Ġopposed": 7056,
      "aska": 7057,
      "Ġdefect": 7058,
      "Ġmissing": 7059,
      "Your": 7060,
      "Ġworry": 7061,
      "ĠAccess": 7062,
      "ĠLar": 7063,
      "incoln": 7064,
      "Ġvolcan": 7065,
      "igan": 7066,
      "Ġaband": 7067,
      "ĠJac": 7068,
      "Ġconsumer": 7069,
      "car": 7070,
      "Ġnest": 7071,
      "ĠDirector": 7072,
      "Ġevil": 7073,
      "Ġchallenging": 7074,
      "Ġaims": 7075,
      "Ġnitrogen": 7076,
      "rin": 7077,
      "Ġdesert": 7078,
      "Ġplayers": 7079,
      "Ġmoves": 7080,
      "inally": 7081,
      "Ġmeth": 7082,
      "ĠWord": 7083,
      "Ġarts": 7084,
      "Ġdesigns": 7085,
      "Qu": 7086,
      "vard": 7087,
      "alls": 7088,
      "ounter": 7089,
      "Ġannounced": 7090,
      "Once": 7091,
      "Ġresident": 7092,
      "Ġtight": 7093,
      "Ġcash": 7094,
      "ĠRef": 7095,
      "Ġelected": 7096,
      "Ġ1994": 7097,
      "Ġasking": 7098,
      "Ġescape": 7099,
      "Ġstrict": 7100,
      "Ġtheme": 7101,
      "Ġcenters": 7102,
      "Ġprogramming": 7103,
      "Ġinfluenced": 7104,
      "Ġhonor": 7105,
      "Ġmoisture": 7106,
      "ĠDig": 7107,
      "Ġrepair": 7108,
      "Ġprincipal": 7109,
      "iner": 7110,
      "oples": 7111,
      "Ġjump": 7112,
      "Ġproved": 7113,
      "ĠHeb": 7114,
      "Ġdistributed": 7115,
      "Ġsla": 7116,
      "Ġbreeding": 7117,
      "ĠAgency": 7118,
      "ĠFace": 7119,
      "aka": 7120,
      "Ġagents": 7121,
      "Ġcarrying": 7122,
      "Ġinher": 7123,
      "Ġorbit": 7124,
      "Ġ65": 7125,
      "Ġplanned": 7126,
      "including": 7127,
      "isco": 7128,
      "afety": 7129,
      "ĠNetwork": 7130,
      "cyclopedia": 7131,
      "IP": 7132,
      "heric": 7133,
      "Ġsubstances": 7134,
      "IA": 7135,
      "ĠSym": 7136,
      "Ġitem": 7137,
      "Ġru": 7138,
      "Ġwait": 7139,
      "Ġingredients": 7140,
      "lishing": 7141,
      "Ġdependent": 7142,
      "ĠOxford": 7143,
      "ĠDar": 7144,
      "Ġoutcome": 7145,
      "orses": 7146,
      "ixture": 7147,
      "rooms": 7148,
      "Ã¢": 7149,
      "olesc": 7150,
      "Ġchest": 7151,
      "Ġelectro": 7152,
      "Ġbringing": 7153,
      "Every": 7154,
      "erest": 7155,
      "ĠAS": 7156,
      "ĠCast": 7157,
      "Ġunion": 7158,
      "erman": 7159,
      "IG": 7160,
      "mes": 7161,
      "ĠIV": 7162,
      "ĠMel": 7163,
      "Ġequally": 7164,
      "Ġimagine": 7165,
      "Ġfairly": 7166,
      "Ġslavery": 7167,
      "72": 7168,
      "Ġpartner": 7169,
      "Ġfacility": 7170,
      "Ġattempts": 7171,
      "gers": 7172,
      "ĠHa": 7173,
      "Ġminerals": 7174,
      "Ġrecommendations": 7175,
      "Ġfavorite": 7176,
      "Med": 7177,
      "produ": 7178,
      "Ġgained": 7179,
      "Ġring": 7180,
      "ĠLanguage": 7181,
      "ĠOtt": 7182,
      "Ġmaintained": 7183,
      "Ġ32": 7184,
      "Ġcaptured": 7185,
      "Ġrely": 7186,
      "Ġheating": 7187,
      "Ġdischar": 7188,
      "ĠChristmas": 7189,
      "Ġcombat": 7190,
      "Ġmeasurements": 7191,
      "ĠSecret": 7192,
      "Ġ;": 7193,
      "Ġknowing": 7194,
      "Ġpassing": 7195,
      "dule": 7196,
      "ĠIns": 7197,
      "Ġengaged": 7198,
      "Ġcod": 7199,
      "Ġcav": 7200,
      "Ġcomplicated": 7201,
      "ĠThough": 7202,
      "Ġstructural": 7203,
      "ĠCreat": 7204,
      "Ġsharp": 7205,
      "ĠOpen": 7206,
      "Ġroughly": 7207,
      "Ġimplications": 7208,
      "ricts": 7209,
      "Ġconversation": 7210,
      "Ġ1993": 7211,
      "Ġconstantly": 7212,
      "Ġtheore": 7213,
      "ĠHy": 7214,
      "Ġtranslation": 7215,
      "icted": 7216,
      "Ġwarning": 7217,
      "Ġfinished": 7218,
      "Ġcattle": 7219,
      "htt": 7220,
      "Ġlie": 7221,
      "Ġencouraged": 7222,
      "Ġcollaboration": 7223,
      "Ġran": 7224,
      "Ġmathematics": 7225,
      "ĠWindows": 7226,
      "ifferent": 7227,
      "Ġinformed": 7228,
      "Ġedition": 7229,
      "Ġessentially": 7230,
      "Ġphotos": 7231,
      "Or": 7232,
      "ĠBill": 7233,
      "ĠResources": 7234,
      "real": 7235,
      "ima": 7236,
      "Ġparas": 7237,
      "Ġbranches": 7238,
      "71": 7239,
      "health": 7240,
      "Ġbanks": 7241,
      "ĠWhere": 7242,
      "ĠEffect": 7243,
      "Ġintense": 7244,
      "pd": 7245,
      "Ġfacing": 7246,
      "ĠSwed": 7247,
      "Ġtraditions": 7248,
      "li": 7249,
      "thm": 7250,
      "Ġscar": 7251,
      "Ġflour": 7252,
      "Ġmessages": 7253,
      "06": 7254,
      "Ġstre": 7255,
      "Ġphenomenon": 7256,
      "Ġsatisf": 7257,
      "ĠDespite": 7258,
      "outs": 7259,
      "Ġempt": 7260,
      "itarian": 7261,
      "osh": 7262,
      "Ġwheat": 7263,
      "Ġmining": 7264,
      "Ġbeauty": 7265,
      "rays": 7266,
      "Ġincred": 7267,
      "inder": 7268,
      "Ġassigned": 7269,
      "ĠJeff": 7270,
      "iva": 7271,
      "ĠLib": 7272,
      "Ġdecor": 7273,
      "ĠAsian": 7274,
      "Ġstimul": 7275,
      "Ġunusual": 7276,
      "Ġbath": 7277,
      "Ġradical": 7278,
      "Today": 7279,
      "Ġforg": 7280,
      "sis": 7281,
      "Ġadvert": 7282,
      "ĠMinister": 7283,
      "Ġbabies": 7284,
      "rass": 7285,
      "ĠPolic": 7286,
      "ĠNov": 7287,
      "Ġstatistics": 7288,
      "iological": 7289,
      "ĠSometimes": 7290,
      "ĠEU": 7291,
      "Ġinfect": 7292,
      "Ġtract": 7293,
      "Ġsuffered": 7294,
      "ollowing": 7295,
      "Le": 7296,
      "Ġwithd": 7297,
      "ĠPen": 7298,
      "Ġexperimental": 7299,
      "Ġsurfaces": 7300,
      "Ġadequate": 7301,
      "heimer": 7302,
      "ĠFund": 7303,
      "Ġsuperior": 7304,
      "Ġconfirmed": 7305,
      "Ġdent": 7306,
      "iratory": 7307,
      "ĠEp": 7308,
      "occ": 7309,
      "iana": 7310,
      "ĠMoreover": 7311,
      "Ġrenewable": 7312,
      "medi": 7313,
      "Ġexclus": 7314,
      "example": 7315,
      "Ġevaluate": 7316,
      "Ġtank": 7317,
      "Ġfurn": 7318,
      "Ġrect": 7319,
      "ĠSat": 7320,
      "ograp": 7321,
      "Ġsubsequent": 7322,
      "Su": 7323,
      "oric": 7324,
      "Ġcompare": 7325,
      "Ġacres": 7326,
      "Ġdepartment": 7327,
      "Ġgradually": 7328,
      "bar": 7329,
      "Ġcompris": 7330,
      "ĠAcc": 7331,
      "Ġordered": 7332,
      "ĠNaz": 7333,
      "Ġeffectiveness": 7334,
      "airy": 7335,
      "Ġinterpretation": 7336,
      "Ġnervous": 7337,
      "Ġgalax": 7338,
      "bles": 7339,
      "ĠList": 7340,
      "Ġshock": 7341,
      "rowing": 7342,
      "Ġcareful": 7343,
      "Ġofficers": 7344,
      "Ġimplemented": 7345,
      "rend": 7346,
      "ooking": 7347,
      "Ġautism": 7348,
      "ĠBefore": 7349,
      "Ġbreath": 7350,
      "igue": 7351,
      "Ġshapes": 7352,
      "Ġclothing": 7353,
      "Ġcopper": 7354,
      "Ġmetabol": 7355,
      "etary": 7356,
      "Ġ||": 7357,
      "ĠMS": 7358,
      "ĠPC": 7359,
      "ĠUr": 7360,
      "Ġ1992": 7361,
      "Because": 7362,
      "iary": 7363,
      "ivered": 7364,
      "Ġowner": 7365,
      "'m": 7366,
      "Ġcontrols": 7367,
      "Ġmaybe": 7368,
      "uset": 7369,
      "Ġinterpre": 7370,
      "Ġfest": 7371,
      "apse": 7372,
      "Ġoverw": 7373,
      "Ġdemands": 7374,
      "ĠChristians": 7375,
      "Ġthreats": 7376,
      "Ġgranted": 7377,
      "Ġgut": 7378,
      "Ġconqu": 7379,
      "Ġlaid": 7380,
      "81": 7381,
      "oured": 7382,
      "ĠIss": 7383,
      "Ġmountains": 7384,
      "chen": 7385,
      "esides": 7386,
      "riz": 7387,
      "Ġearliest": 7388,
      "Ġfemales": 7389,
      "ĠBoston": 7390,
      "Ġreduces": 7391,
      "Ġstead": 7392,
      "64": 7393,
      "Ġproof": 7394,
      "Ġvac": 7395,
      "ĠWall": 7396,
      "Ġfed": 7397,
      "ading": 7398,
      "Ġsup": 7399,
      "ĠHill": 7400,
      "ells": 7401,
      "Ġproven": 7402,
      "ĠLeg": 7403,
      "82": 7404,
      "UT": 7405,
      "ani": 7406,
      "Ġdates": 7407,
      "ĠWho": 7408,
      "Ġconcluded": 7409,
      "Â·": 7410,
      "Ġplenty": 7411,
      "ritis": 7412,
      "Ġblind": 7413,
      "ventions": 7414,
      "ommod": 7415,
      "Ġseconds": 7416,
      "achuset": 7417,
      "Ġswitch": 7418,
      "bra": 7419,
      "Ġbond": 7420,
      "ĠAP": 7421,
      "Ġusual": 7422,
      "achusetts": 7423,
      "Ġsession": 7424,
      "Ġdealing": 7425,
      "ĠVer": 7426,
      "Ġdesired": 7427,
      "ounce": 7428,
      "Ġasc": 7429,
      "ady": 7430,
      "ĠFar": 7431,
      "rene": 7432,
      "Ġpreventing": 7433,
      "Ġstronger": 7434,
      "Ġfarming": 7435,
      "Ġrespectively": 7436,
      "Ġdifficulties": 7437,
      "Ġconcerning": 7438,
      "ĠAmong": 7439,
      "Ġvirtual": 7440,
      "Ġcooking": 7441,
      "83": 7442,
      "ĠCre": 7443,
      "aded": 7444,
      "Ġabnormal": 7445,
      "Ġjur": 7446,
      "Ġaccuracy": 7447,
      "%.": 7448,
      "ipedia": 7449,
      "ĠMedia": 7450,
      "Ġlaunch": 7451,
      "Ġsettlement": 7452,
      "onym": 7453,
      "Ġhole": 7454,
      "ulpt": 7455,
      "oven": 7456,
      "Ġmodified": 7457,
      "oir": 7458,
      "Ġtargets": 7459,
      "Ġirrit": 7460,
      "een": 7461,
      "ĠDutch": 7462,
      "ĠFour": 7463,
      "Ġpresents": 7464,
      "class": 7465,
      "UN": 7466,
      "adel": 7467,
      "Ġpeak": 7468,
      "Ġmineral": 7469,
      "azon": 7470,
      "vin": 7471,
      "Ġpermission": 7472,
      "ĠCentre": 7473,
      "mers": 7474,
      "Ġgiant": 7475,
      "Ġstatements": 7476,
      "eness": 7477,
      "Ġpestic": 7478,
      "Ġdeeper": 7479,
      "ĠLead": 7480,
      "Ġrose": 7481,
      "Ġspectrum": 7482,
      "ĠAdministration": 7483,
      "greg": 7484,
      "Ġcab": 7485,
      "ĠPot": 7486,
      "Ġartist": 7487,
      "ĠAdv": 7488,
      "Ġquarter": 7489,
      "trans": 7490,
      "agraph": 7491,
      "Ġ1950": 7492,
      "Ġcoverage": 7493,
      "Ġisolated": 7494,
      "aired": 7495,
      "icate": 7496,
      "olving": 7497,
      "ĠSil": 7498,
      "asts": 7499,
      "ĠYear": 7500,
      "ĠForce": 7501,
      "ĠType": 7502,
      "ĠPo": 7503,
      "unicip": 7504,
      "Ġroads": 7505,
      "Ġpharm": 7506,
      "Ġattitude": 7507,
      "Ġfalls": 7508,
      "Ġinvestigation": 7509,
      "Ġhouseholds": 7510,
      "ĠSpecial": 7511,
      "03": 7512,
      "HA": 7513,
      "ĠMethod": 7514,
      "ĠKar": 7515,
      "Ġoffering": 7516,
      "hyd": 7517,
      "Ġepis": 7518,
      "Ġaccompan": 7519,
      "ĠPlease": 7520,
      "Ġreward": 7521,
      "ĠSanta": 7522,
      "irth": 7523,
      "ĠNon": 7524,
      "Ġvarieties": 7525,
      "Ġplanets": 7526,
      "raining": 7527,
      "Ġremoval": 7528,
      "Ġtumor": 7529,
      "vania": 7530,
      "mod": 7531,
      "net": 7532,
      "Ġid": 7533,
      "atial": 7534,
      "ĠConservation": 7535,
      "ersonal": 7536,
      "74": 7537,
      "pes": 7538,
      "Ġvisited": 7539,
      "Ġfaced": 7540,
      "Ġpush": 7541,
      "ĠThree": 7542,
      "09": 7543,
      "Ġmm": 7544,
      "ĠAND": 7545,
      "amine": 7546,
      "isted": 7547,
      "ĠGrand": 7548,
      "theless": 7549,
      "ĠForest": 7550,
      "Ġpreparation": 7551,
      "Ġspin": 7552,
      "Ġintest": 7553,
      "Ġroles": 7554,
      "Ġadds": 7555,
      "Ġmarks": 7556,
      "Ġov": 7557,
      "aming": 7558,
      "ercury": 7559,
      "Ġuniversal": 7560,
      "Ġcosm": 7561,
      "quir": 7562,
      "ĠLight": 7563,
      "Ġscientist": 7564,
      "Ġbigger": 7565,
      "encing": 7566,
      "asant": 7567,
      "Ġcommission": 7568,
      "Ġsitting": 7569,
      "Ġcriteria": 7570,
      "Ġfishing": 7571,
      "Ġsatellite": 7572,
      "ĠLincoln": 7573,
      "Ġregulation": 7574,
      "Ġexamination": 7575,
      "Ġconfig": 7576,
      "Ġfilter": 7577,
      "Ġtowns": 7578,
      "Ġuncertain": 7579,
      "ĠSir": 7580,
      "ogs": 7581,
      "rous": 7582,
      "Ġerrors": 7583,
      "Ġdrought": 7584,
      "Ġstores": 7585,
      "allow": 7586,
      "Ġouter": 7587,
      "Ġacute": 7588,
      "br": 7589,
      "Ġmold": 7590,
      "ĠYoung": 7591,
      "ĠAuthor": 7592,
      "Ġsubstantial": 7593,
      "Ġroyal": 7594,
      "Ġheads": 7595,
      "Ġargue": 7596,
      "Ġperception": 7597,
      "Ġslaves": 7598,
      "Ġprofit": 7599,
      "Ġflows": 7600,
      "Ġinitially": 7601,
      "ĠWorks": 7602,
      "Ġamazing": 7603,
      "ĠIndust": 7604,
      "Ġexcessive": 7605,
      "Ġcarbohyd": 7606,
      "Ġmales": 7607,
      "ĠTim": 7608,
      "achers": 7609,
      "Ġscreening": 7610,
      "Ġemphasis": 7611,
      "Ġaest": 7612,
      "Ġvariation": 7613,
      "Am": 7614,
      "fts": 7615,
      "sm": 7616,
      "Ġtropical": 7617,
      "Ġfisher": 7618,
      "Ġenorm": 7619,
      "Ġtemple": 7620,
      "Ġdelivered": 7621,
      "ĠGeorgia": 7622,
      "amber": 7623,
      "istical": 7624,
      "elfare": 7625,
      "Ġmeasurement": 7626,
      "fl": 7627,
      "ĠDou": 7628,
      "ogether": 7629,
      "Ġfatty": 7630,
      "Ġsplit": 7631,
      "Ġsenior": 7632,
      "Ġclar": 7633,
      "ĠPalest": 7634,
      "May": 7635,
      "Ġadm": 7636,
      "Ġcontribution": 7637,
      "Ġeditor": 7638,
      "Ġhappening": 7639,
      "Ġcorner": 7640,
      "Ġconference": 7641,
      "Ġcomplications": 7642,
      "Ġcharacterized": 7643,
      "rolled": 7644,
      "Ġpreced": 7645,
      "Ġexped": 7646,
      "Ġangle": 7647,
      "ĠCheck": 7648,
      "Comm": 7649,
      "Ġdys": 7650,
      "Ġprovince": 7651,
      "acco": 7652,
      "CA": 7653,
      "just": 7654,
      "Ġfinds": 7655,
      "Ġregarded": 7656,
      "ĠFacebook": 7657,
      "angle": 7658,
      "Ġobserve": 7659,
      "Ġsunlight": 7660,
      "ĠCoast": 7661,
      "Ġstrengthen": 7662,
      "ĠQueen": 7663,
      ")|": 7664,
      "essions": 7665,
      "Ġconserv": 7666,
      "Ġfocuses": 7667,
      "Ġmechanical": 7668,
      "ĠMassachusetts": 7669,
      "Ġconsidering": 7670,
      "Ġlens": 7671,
      "ĠBul": 7672,
      "Ġrecover": 7673,
      "Ġevolved": 7674,
      "Ġvariables": 7675,
      "Ġinspired": 7676,
      "iture": 7677,
      "icy": 7678,
      "irus": 7679,
      "ĠHor": 7680,
      "Ġritual": 7681,
      "archy": 7682,
      "Ġexamined": 7683,
      "ĠPrinc": 7684,
      "ĠSuper": 7685,
      "ĠFurthermore": 7686,
      "Per": 7687,
      "RA": 7688,
      "roat": 7689,
      "eli": 7690,
      "Ġreveal": 7691,
      "ĠOhio": 7692,
      "Ear": 7693,
      "Ġhealing": 7694,
      "Ġassert": 7695,
      "ĠArctic": 7696,
      "Ġadvantages": 7697,
      "Ġintent": 7698,
      "Ġpit": 7699,
      "Ġconj": 7700,
      "ĠLin": 7701,
      "Ġhydro": 7702,
      "Ġhazard": 7703,
      "Ġanalys": 7704,
      "Ġprominent": 7705,
      "Ġwindows": 7706,
      "ioxid": 7707,
      "ĠCambridge": 7708,
      "door": 7709,
      "iat": 7710,
      "Ġnewly": 7711,
      "Ġbreed": 7712,
      "Ġwine": 7713,
      "illa": 7714,
      "ĠResp": 7715,
      "Ġdirected": 7716,
      "Ġidentification": 7717,
      "Ġmusical": 7718,
      "Ġdemocracy": 7719,
      "About": 7720,
      "Ġbomb": 7721,
      "Ġdance": 7722,
      "Ġsport": 7723,
      "aping": 7724,
      "Car": 7725,
      "ĠTV": 7726,
      "ĠChapter": 7727,
      "Ġauthent": 7728,
      "Ġprinted": 7729,
      "sell": 7730,
      "ĠSign": 7731,
      "ruption": 7732,
      "Ġaged": 7733,
      "Ġcm": 7734,
      "ĠSund": 7735,
      "Ġprobability": 7736,
      "ĠEgyptian": 7737,
      "aya": 7738,
      "Ġserves": 7739,
      "Ġcaught": 7740,
      "Ġmic": 7741,
      "Ġnose": 7742,
      "ĠDC": 7743,
      "angered": 7744,
      "yer": 7745,
      "Ã¤": 7746,
      "Ð°": 7747,
      "oli": 7748,
      "Ġalive": 7749,
      "night": 7750,
      "Ġstations": 7751,
      "Ġ1930": 7752,
      "Ġrelie": 7753,
      "Ġpin": 7754,
      "ilation": 7755,
      "Ġgro": 7756,
      "ĠCross": 7757,
      "She": 7758,
      "Ġstuff": 7759,
      "Ġclient": 7760,
      "Ġscore": 7761,
      "Ġgrain": 7762,
      "rong": 7763,
      "Ġreaching": 7764,
      "irms": 7765,
      "amples": 7766,
      "ĠLow": 7767,
      "ĠLiter": 7768,
      "Ġoccurring": 7769,
      "Ġbeans": 7770,
      "Ġcontributed": 7771,
      "Ġtelevision": 7772,
      "Ġton": 7773,
      "Ġuniform": 7774,
      "anger": 7775,
      "IDS": 7776,
      "Ġexpanded": 7777,
      "04": 7778,
      "Ġwage": 7779,
      "riend": 7780,
      "Ġarray": 7781,
      "ucky": 7782,
      "Ġbranch": 7783,
      "oga": 7784,
      "Ġwrites": 7785,
      "Ġnarrative": 7786,
      "opyright": 7787,
      "bec": 7788,
      "urolog": 7789,
      "itals": 7790,
      "Ġvan": 7791,
      "Ġperm": 7792,
      "ĠFinally": 7793,
      "69": 7794,
      "eor": 7795,
      "zer": 7796,
      "zheimer": 7797,
      "ami": 7798,
      "acent": 7799,
      "uality": 7800,
      "Ġinfant": 7801,
      "Ġdriven": 7802,
      "Ġslave": 7803,
      "oids": 7804,
      "Ġfires": 7805,
      "Ġgrounds": 7806,
      "Ġcoc": 7807,
      "ĠWil": 7808,
      "ĠCommunity": 7809,
      "Ġinnovation": 7810,
      "Ġalph": 7811,
      "Ġhence": 7812,
      "ĠBa": 7813,
      "ĠEr": 7814,
      "Ġflower": 7815,
      "Ġteams": 7816,
      "Ġillegal": 7817,
      "ĠHebrew": 7818,
      "?\"": 7819,
      "pling": 7820,
      "abeth": 7821,
      "Ġplot": 7822,
      "Ġguard": 7823,
      "Ġcommunications": 7824,
      "ĠLearn": 7825,
      "Ġeliminate": 7826,
      ".||": 7827,
      "Ġwisdom": 7828,
      "Ġworst": 7829,
      "agram": 7830,
      "Ġseparated": 7831,
      "Ġheavily": 7832,
      "Ġdiameter": 7833,
      "Ġathlet": 7834,
      "ba": 7835,
      "ĠPlant": 7836,
      "Ġmicrosc": 7837,
      "Ġpointed": 7838,
      "Ġopposition": 7839,
      "syl": 7840,
      "requ": 7841,
      "ura": 7842,
      "ptions": 7843,
      "Ġaccommod": 7844,
      "Ġanywhere": 7845,
      "ovascular": 7846,
      "tles": 7847,
      "Ġlaser": 7848,
      "Ġintensity": 7849,
      "Ġagent": 7850,
      "forest": 7851,
      "Ġcalling": 7852,
      "Ġgrows": 7853,
      "arents": 7854,
      "Ġlosses": 7855,
      "otton": 7856,
      "Ġorb": 7857,
      "una": 7858,
      "People": 7859,
      "ĠSet": 7860,
      "orted": 7861,
      "ultane": 7862,
      "Ġabsence": 7863,
      "Ġvocabulary": 7864,
      "oul": 7865,
      "ĠStart": 7866,
      "ĠVen": 7867,
      "Ġsales": 7868,
      "thritis": 7869,
      "Ġliterary": 7870,
      "Ġsilver": 7871,
      "02": 7872,
      "lete": 7873,
      "ĠSar": 7874,
      "ĠSup": 7875,
      "ĠEst": 7876,
      "PR": 7877,
      "ĠAL": 7878,
      "ĠBattle": 7879,
      "Ġtrigger": 7880,
      "ĠLos": 7881,
      "Ġinterface": 7882,
      "Ġhorses": 7883,
      "rav": 7884,
      "ĠCam": 7885,
      "Ġdisrupt": 7886,
      "Ġsculpt": 7887,
      "Ġdetection": 7888,
      "Ġdescript": 7889,
      "Ġcompound": 7890,
      "Ġbless": 7891,
      "coming": 7892,
      "Ġsuscept": 7893,
      "ĠFrancisco": 7894,
      "estion": 7895,
      "Ġformula": 7896,
      "Ġbag": 7897,
      "amins": 7898,
      "Ġabilities": 7899,
      "Ġobservation": 7900,
      "Ġthreatened": 7901,
      "ĠArticle": 7902,
      "Ġpanels": 7903,
      "brid": 7904,
      "ugg": 7905,
      "Ġremed": 7906,
      "Ġextend": 7907,
      "Ġoldest": 7908,
      "ĠChristianity": 7909,
      "Ð¾": 7910,
      "Ġnice": 7911,
      "ette": 7912,
      "Ġrational": 7913,
      "Ġgirl": 7914,
      "ĠIslamic": 7915,
      "Ġnewspaper": 7916,
      "bul": 7917,
      "ĠFigure": 7918,
      "Ġexception": 7919,
      "Ġmouse": 7920,
      "Ġsettled": 7921,
      "ĠPortug": 7922,
      "Ġappointed": 7923,
      "html": 7924,
      "ĠCard": 7925,
      "ieval": 7926,
      "Ġovercome": 7927,
      "century": 7928,
      "Ġcommitment": 7929,
      "ĠBooks": 7930,
      "Ġinhabit": 7931,
      "Ġunw": 7932,
      "Ġpolar": 7933,
      "Ġtaxes": 7934,
      "Ġ)": 7935,
      "ĠAM": 7936,
      "Ġchap": 7937,
      "Ġpeoples": 7938,
      "Ġfarms": 7939,
      "Ġconsideration": 7940,
      "Ġstrike": 7941,
      "ĠProtection": 7942,
      "',": 7943,
      "App": 7944,
      "iop": 7945,
      "urning": 7946,
      "rency": 7947,
      "ENT": 7948,
      "eenth": 7949,
      "Ġtor": 7950,
      "Ġconsume": 7951,
      "Ġaudio": 7952,
      "eut": 7953,
      "effect": 7954,
      "Ġholes": 7955,
      "Ġcomprom": 7956,
      "print": 7957,
      "ĠCurrent": 7958,
      "vi": 7959,
      "ĠAI": 7960,
      "Ġdietary": 7961,
      "Ġpleasure": 7962,
      "ifice": 7963,
      "ĠConvention": 7964,
      "Ġbiom": 7965,
      "Ġprotecting": 7966,
      "Ġinitiative": 7967,
      "rical": 7968,
      "Ġseat": 7969,
      "Ġenables": 7970,
      "Ġblo": 7971,
      "ĠPolit": 7972,
      "ĠNever": 7973,
      "soft": 7974,
      "Ġauton": 7975,
      "Ġswit": 7976,
      "Ġofficer": 7977,
      "rection": 7978,
      "aning": 7979,
      "icular": 7980,
      "neys": 7981,
      "Ġ55": 7982,
      "Ġglac": 7983,
      "Ġlearners": 7984,
      "sylvania": 7985,
      "she": 7986,
      "Ġadvent": 7987,
      "ĠSimilar": 7988,
      "Ġscheme": 7989,
      "Ġhoney": 7990,
      "Ġcontainer": 7991,
      "ĠÂ£": 7992,
      "haust": 7993,
      "Ġtribes": 7994,
      "green": 7995,
      "Ġspr": 7996,
      "Ġdegrad": 7997,
      "Ġdecreased": 7998,
      "Ġspoken": 7999,
      "aws": 8000,
      "Ġinsight": 8001,
      "gener": 8002,
      "ĠMichigan": 8003,
      "Ed": 8004,
      "nov": 8005,
      "Ġcharacteristic": 8006,
      "Ġcovering": 8007,
      "itory": 8008,
      "utation": 8009,
      "teenth": 8010,
      "Ġfo": 8011,
      "Ġgrid": 8012,
      "Ġboat": 8013,
      "ĠAlexander": 8014,
      "ĠLee": 8015,
      "Ġexplicit": 8016,
      "Ġcourts": 8017,
      "Ġbelieves": 8018,
      "SS": 8019,
      "rator": 8020,
      "erty": 8021,
      "Ġsubt": 8022,
      "Ġsocieties": 8023,
      "ĠAlzheimer": 8024,
      "ĠParliament": 8025,
      "63": 8026,
      "Ġgases": 8027,
      "Ġmyst": 8028,
      "Ġautomatically": 8029,
      "Ġceremon": 8030,
      "adelph": 8031,
      "\")": 8032,
      "ansas": 8033,
      "ailable": 8034,
      "Ġindigenous": 8035,
      "Ġprovider": 8036,
      "Ġlistening": 8037,
      "Ġargued": 8038,
      "Ġstopped": 8039,
      "Ġmothers": 8040,
      "olt": 8041,
      "Ġconce": 8042,
      "Ġvideos": 8043,
      "Ġmanufacturers": 8044,
      "har": 8045,
      "ĠRock": 8046,
      "Ġsupplements": 8047,
      "Ġforming": 8048,
      "Ġfur": 8049,
      "action": 8050,
      "Ġdisabilities": 8051,
      "Ġobjectives": 8052,
      "Ġheaven": 8053,
      "Ġelsewhere": 8054,
      "Ġmortality": 8055,
      "Ġearthquake": 8056,
      "Ġcharged": 8057,
      "rison": 8058,
      "uy": 8059,
      "Ġbrows": 8060,
      "Ġhosp": 8061,
      "Ġprocessed": 8062,
      "Ġlights": 8063,
      "Ġviewed": 8064,
      "Pre": 8065,
      "Ġtube": 8066,
      "athered": 8067,
      "Ġparad": 8068,
      "ĠOnline": 8069,
      "Ġaffecting": 8070,
      "OM": 8071,
      "asma": 8072,
      "Ġchlor": 8073,
      "Ġaddressed": 8074,
      "Ġantibiotics": 8075,
      "ĠTop": 8076,
      "Ġregardless": 8077,
      "Ġbare": 8078,
      "otal": 8079,
      "Ġcomfortable": 8080,
      "Ġflying": 8081,
      "Ġstability": 8082,
      "istant": 8083,
      "ĠDoes": 8084,
      "ĠNote": 8085,
      "Ġhumanity": 8086,
      "ĠColl": 8087,
      "Ġphrase": 8088,
      "Ġmine": 8089,
      "Ġconclus": 8090,
      "atively": 8091,
      "08": 8092,
      "John": 8093,
      "asm": 8094,
      "ogenic": 8095,
      "Ġordinary": 8096,
      "ĠVietnam": 8097,
      "ket": 8098,
      "zym": 8099,
      "rot": 8100,
      "ĠTable": 8101,
      "ĠWithout": 8102,
      "Ġfatigue": 8103,
      "def": 8104,
      "Ġelder": 8105,
      "Ġproviders": 8106,
      "Ġconfident": 8107,
      "Ġcooling": 8108,
      "ĠCorn": 8109,
      "emb": 8110,
      "Ġcann": 8111,
      "Ġdose": 8112,
      "Ġmeasuring": 8113,
      "ographical": 8114,
      "HD": 8115,
      "ĠWay": 8116,
      "plete": 8117,
      "ĠHeart": 8118,
      "Ġexperiencing": 8119,
      "Ġdramatic": 8120,
      "Ġdynamic": 8121,
      "Ġtick": 8122,
      "cho": 8123,
      "Ġadolesc": 8124,
      "Ġ33": 8125,
      "Ġconstra": 8126,
      "otherapy": 8127,
      "icing": 8128,
      "Ġtreating": 8129,
      "Ġorders": 8130,
      "uan": 8131,
      "Ġfix": 8132,
      "Ġ1920": 8133,
      "eping": 8134,
      "Ġthereby": 8135,
      "Ġexploration": 8136,
      "Get": 8137,
      "Last": 8138,
      "ere": 8139,
      "Ġlists": 8140,
      "Ġmoderate": 8141,
      "mann": 8142,
      "Ġexisted": 8143,
      "Ġversions": 8144,
      "Ġduty": 8145,
      "CE": 8146,
      "Pr": 8147,
      "Ġhidden": 8148,
      "Ġidentifying": 8149,
      "Ġcounsel": 8150,
      "ĠModern": 8151,
      "Ġmathematical": 8152,
      "Ġchannel": 8153,
      "Part": 8154,
      "enger": 8155,
      "ĠHospital": 8156,
      "Ġfinish": 8157,
      "Ġprinting": 8158,
      "ĠMusic": 8159,
      "Ġdeficiency": 8160,
      "adelphia": 8161,
      "Ġtables": 8162,
      "Ġfunctioning": 8163,
      "Ġadapted": 8164,
      "Ġbiodiversity": 8165,
      "omatic": 8166,
      "quar": 8167,
      "Ġoverwhel": 8168,
      "Ġdetected": 8169,
      "Ġdistricts": 8170,
      "Ġreporting": 8171,
      "Ġprogramme": 8172,
      "nedy": 8173,
      "Ġengineers": 8174,
      "Ġinteractive": 8175,
      "Ġkingdom": 8176,
      "elve": 8177,
      "ĠJul": 8178,
      "Ġdism": 8179,
      "Ġsurge": 8180,
      "Ġentit": 8181,
      "ĠJohnson": 8182,
      "Ġrepresentation": 8183,
      "Ġbeat": 8184,
      "Ġresearcher": 8185,
      "Ġcleaning": 8186,
      "gence": 8187,
      "world": 8188,
      "Ġsad": 8189,
      "igate": 8190,
      "ĠLo": 8191
    },
    "merges": [
      [
        "Ġ",
        "t"
      ],
      [
        "Ġ",
        "a"
      ],
      [
        "h",
        "e"
      ],
      [
        "i",
        "n"
      ],
      [
        "r",
        "e"
      ],
      [
        "Ġt",
        "he"
      ],
      [
        "o",
        "n"
      ],
      [
        "e",
        "r"
      ],
      [
        "Ġ",
        "o"
      ],
      [
        "a",
        "t"
      ],
      [
        "Ġ",
        "s"
      ],
      [
        "e",
        "n"
      ],
      [
        "Ġ",
        "c"
      ],
      [
        "Ġ",
        "w"
      ],
      [
        "e",
        "s"
      ],
      [
        "i",
        "s"
      ],
      [
        "n",
        "d"
      ],
      [
        "i",
        "t"
      ],
      [
        "o",
        "r"
      ],
      [
        "Ġ",
        "p"
      ],
      [
        "a",
        "l"
      ],
      [
        "e",
        "d"
      ],
      [
        "Ġ",
        "b"
      ],
      [
        "Ġo",
        "f"
      ],
      [
        "a",
        "n"
      ],
      [
        "Ġ",
        "f"
      ],
      [
        "in",
        "g"
      ],
      [
        "Ġ",
        "in"
      ],
      [
        "a",
        "r"
      ],
      [
        "o",
        "u"
      ],
      [
        "Ġ",
        "m"
      ],
      [
        "Ġa",
        "nd"
      ],
      [
        "Ġt",
        "o"
      ],
      [
        "i",
        "c"
      ],
      [
        "Ġ",
        "d"
      ],
      [
        "i",
        "on"
      ],
      [
        "l",
        "e"
      ],
      [
        "r",
        "o"
      ],
      [
        "a",
        "s"
      ],
      [
        "Ġ",
        "h"
      ],
      [
        "Ġt",
        "h"
      ],
      [
        "en",
        "t"
      ],
      [
        "c",
        "t"
      ],
      [
        "Ġ",
        "e"
      ],
      [
        "i",
        "l"
      ],
      [
        "Ġ",
        "re"
      ],
      [
        "o",
        "m"
      ],
      [
        "v",
        "e"
      ],
      [
        "Ġ",
        "l"
      ],
      [
        "s",
        "t"
      ],
      [
        "Ġ",
        "n"
      ],
      [
        "l",
        "y"
      ],
      [
        "Ġb",
        "e"
      ],
      [
        "â",
        "Ģ"
      ],
      [
        "Ġ",
        "is"
      ],
      [
        "Ġ",
        "T"
      ],
      [
        "s",
        "e"
      ],
      [
        "o",
        "l"
      ],
      [
        "Ġ",
        "g"
      ],
      [
        "at",
        "ion"
      ],
      [
        "i",
        "m"
      ],
      [
        "i",
        "d"
      ],
      [
        "e",
        "t"
      ],
      [
        "u",
        "t"
      ],
      [
        "c",
        "e"
      ],
      [
        "o",
        "t"
      ],
      [
        "u",
        "r"
      ],
      [
        "r",
        "a"
      ],
      [
        "o",
        "w"
      ],
      [
        "c",
        "h"
      ],
      [
        "Ġ",
        "A"
      ],
      [
        "Ġf",
        "or"
      ],
      [
        "i",
        "g"
      ],
      [
        "Ġth",
        "at"
      ],
      [
        "Ġ",
        "S"
      ],
      [
        "Ġ",
        "on"
      ],
      [
        "Ġ",
        "u"
      ],
      [
        "Ġs",
        "t"
      ],
      [
        "v",
        "er"
      ],
      [
        "Ġ",
        "C"
      ],
      [
        "Ġ",
        "I"
      ],
      [
        "i",
        "r"
      ],
      [
        "Ġ",
        "y"
      ],
      [
        "u",
        "l"
      ],
      [
        "a",
        "y"
      ],
      [
        "a",
        "m"
      ],
      [
        "Ġa",
        "s"
      ],
      [
        "e",
        "l"
      ],
      [
        "it",
        "h"
      ],
      [
        "a",
        "d"
      ],
      [
        "he",
        "r"
      ],
      [
        "Ġp",
        "ro"
      ],
      [
        "Ġc",
        "on"
      ],
      [
        "Ġa",
        "re"
      ],
      [
        "Ġa",
        "n"
      ],
      [
        "Ġw",
        "ith"
      ],
      [
        "Ġw",
        "h"
      ],
      [
        "i",
        "f"
      ],
      [
        "Ġ",
        "it"
      ],
      [
        "Ġo",
        "r"
      ],
      [
        "Ġa",
        "l"
      ],
      [
        "t",
        "er"
      ],
      [
        "Ġ",
        "M"
      ],
      [
        "Ġy",
        "ou"
      ],
      [
        "o",
        "d"
      ],
      [
        "Ġ",
        "("
      ],
      [
        "ĠT",
        "he"
      ],
      [
        "g",
        "e"
      ],
      [
        "m",
        "ent"
      ],
      [
        "Ġ",
        "1"
      ],
      [
        "Ġ",
        "P"
      ],
      [
        "t",
        "h"
      ],
      [
        "is",
        "t"
      ],
      [
        "o",
        "p"
      ],
      [
        "at",
        "e"
      ],
      [
        "er",
        "s"
      ],
      [
        "Ġd",
        "e"
      ],
      [
        "i",
        "es"
      ],
      [
        "Ġ",
        "he"
      ],
      [
        "il",
        "l"
      ],
      [
        "a",
        "b"
      ],
      [
        "Ġ",
        "B"
      ],
      [
        "u",
        "s"
      ],
      [
        "es",
        "s"
      ],
      [
        "Ġe",
        "x"
      ],
      [
        "Ġw",
        "e"
      ],
      [
        "e",
        "ct"
      ],
      [
        "o",
        "re"
      ],
      [
        "Ġs",
        "u"
      ],
      [
        "Ġc",
        "om"
      ],
      [
        "it",
        "y"
      ],
      [
        "âĢ",
        "Ļ"
      ],
      [
        "es",
        "t"
      ],
      [
        "Ġh",
        "a"
      ],
      [
        "re",
        "s"
      ],
      [
        "i",
        "ve"
      ],
      [
        "Ġ",
        "H"
      ],
      [
        "l",
        "d"
      ],
      [
        "ro",
        "m"
      ],
      [
        "u",
        "m"
      ],
      [
        "a",
        "c"
      ],
      [
        "o",
        "s"
      ],
      [
        "Ġb",
        "y"
      ],
      [
        "Ġ",
        "v"
      ],
      [
        "k",
        "e"
      ],
      [
        "e",
        "m"
      ],
      [
        "an",
        "t"
      ],
      [
        "i",
        "v"
      ],
      [
        "q",
        "u"
      ],
      [
        "Ġ",
        "W"
      ],
      [
        "a",
        "in"
      ],
      [
        "Ġa",
        "t"
      ],
      [
        "n",
        "t"
      ],
      [
        "Ġw",
        "as"
      ],
      [
        "p",
        "p"
      ],
      [
        "Ġ",
        "D"
      ],
      [
        "ig",
        "h"
      ],
      [
        "Ġ",
        "E"
      ],
      [
        "u",
        "d"
      ],
      [
        "Ġf",
        "rom"
      ],
      [
        "a",
        "nd"
      ],
      [
        "en",
        "d"
      ],
      [
        "o",
        "c"
      ],
      [
        "Ġc",
        "h"
      ],
      [
        "Ġc",
        "an"
      ],
      [
        "Ġ",
        "r"
      ],
      [
        "Ġ",
        "R"
      ],
      [
        "or",
        "t"
      ],
      [
        "Ġn",
        "e"
      ],
      [
        "Ġ",
        "F"
      ],
      [
        "Ġs",
        "e"
      ],
      [
        "i",
        "al"
      ],
      [
        "Ġ",
        "2"
      ],
      [
        "u",
        "re"
      ],
      [
        "Ġn",
        "ot"
      ],
      [
        "Ġ",
        "âĢ"
      ],
      [
        "u",
        "n"
      ],
      [
        "Ġ",
        "N"
      ],
      [
        "ar",
        "t"
      ],
      [
        "Ġ",
        "le"
      ],
      [
        "ic",
        "al"
      ],
      [
        "Ġ",
        "G"
      ],
      [
        "Ġha",
        "ve"
      ],
      [
        "t",
        "e"
      ],
      [
        "r",
        "i"
      ],
      [
        "Ġ",
        "L"
      ],
      [
        "o",
        "g"
      ],
      [
        "Ġs",
        "h"
      ],
      [
        "Ġth",
        "is"
      ],
      [
        "Ġs",
        "p"
      ],
      [
        "0",
        "0"
      ],
      [
        "p",
        "t"
      ],
      [
        "Ġa",
        "b"
      ],
      [
        "r",
        "ou"
      ],
      [
        "ic",
        "h"
      ],
      [
        "igh",
        "t"
      ],
      [
        "re",
        "d"
      ],
      [
        "al",
        "l"
      ],
      [
        "Ġw",
        "or"
      ],
      [
        "ou",
        "ld"
      ],
      [
        "t",
        "her"
      ],
      [
        "g",
        "h"
      ],
      [
        "T",
        "he"
      ],
      [
        "om",
        "e"
      ],
      [
        "o",
        "st"
      ],
      [
        "ion",
        "s"
      ],
      [
        "ou",
        "r"
      ],
      [
        "at",
        "ed"
      ],
      [
        "d",
        "u"
      ],
      [
        "Ġ",
        "im"
      ],
      [
        "p",
        "er"
      ],
      [
        "in",
        "e"
      ],
      [
        "Ġu",
        "s"
      ],
      [
        "ar",
        "d"
      ],
      [
        "a",
        "g"
      ],
      [
        "ou",
        "t"
      ],
      [
        "Ġp",
        "l"
      ],
      [
        "Ġthe",
        "ir"
      ],
      [
        "el",
        "l"
      ],
      [
        "Ġ",
        "O"
      ],
      [
        "id",
        "e"
      ],
      [
        "f",
        "f"
      ],
      [
        "a",
        "ct"
      ],
      [
        "Ġ",
        "en"
      ],
      [
        "an",
        "s"
      ],
      [
        "e",
        "ar"
      ],
      [
        "p",
        "l"
      ],
      [
        "Ġ",
        "J"
      ],
      [
        "a",
        "ge"
      ],
      [
        "u",
        "st"
      ],
      [
        "Ġwh",
        "ich"
      ],
      [
        "Ġ",
        "k"
      ],
      [
        "a",
        "k"
      ],
      [
        "as",
        "t"
      ],
      [
        "ou",
        "s"
      ],
      [
        "Ġw",
        "he"
      ],
      [
        "Ġthe",
        "y"
      ],
      [
        "e",
        "c"
      ],
      [
        "Ġ",
        "U"
      ],
      [
        "Ġal",
        "l"
      ],
      [
        "i",
        "z"
      ],
      [
        "ĠI",
        "n"
      ],
      [
        "o",
        "od"
      ],
      [
        "Ġyou",
        "r"
      ],
      [
        "i",
        "b"
      ],
      [
        "Ġa",
        "d"
      ],
      [
        "a",
        "p"
      ],
      [
        "ul",
        "t"
      ],
      [
        "Ġin",
        "c"
      ],
      [
        "i",
        "a"
      ],
      [
        "Ġw",
        "ill"
      ],
      [
        "Ġd",
        "is"
      ],
      [
        "c",
        "c"
      ],
      [
        "r",
        "u"
      ],
      [
        "âĢ",
        "Ŀ"
      ],
      [
        "on",
        "g"
      ],
      [
        "Ġm",
        "ore"
      ],
      [
        "Ġcon",
        "t"
      ],
      [
        "Ġcom",
        "p"
      ],
      [
        "Ġh",
        "as"
      ],
      [
        "i",
        "p"
      ],
      [
        "ve",
        "l"
      ],
      [
        "ation",
        "s"
      ],
      [
        "Ġre",
        "s"
      ],
      [
        "e",
        "w"
      ],
      [
        "ar",
        "y"
      ],
      [
        "or",
        "m"
      ],
      [
        "s",
        "o"
      ],
      [
        "Ġd",
        "o"
      ],
      [
        "Ġin",
        "t"
      ],
      [
        "at",
        "er"
      ],
      [
        "Ġwe",
        "re"
      ],
      [
        "ĠT",
        "h"
      ],
      [
        "Ġo",
        "ther"
      ],
      [
        "Ġb",
        "ut"
      ],
      [
        "Ġc",
        "l"
      ],
      [
        "il",
        "d"
      ],
      [
        "en",
        "ce"
      ],
      [
        "Ġm",
        "an"
      ],
      [
        "x",
        "t"
      ],
      [
        "u",
        "al"
      ],
      [
        "a",
        "re"
      ],
      [
        "ab",
        "le"
      ],
      [
        "k",
        "s"
      ],
      [
        "r",
        "y"
      ],
      [
        "'",
        "s"
      ],
      [
        "Ġm",
        "e"
      ],
      [
        "ĠâĢ",
        "ľ"
      ],
      [
        "Ġp",
        "er"
      ],
      [
        "Ġon",
        "e"
      ],
      [
        "an",
        "ce"
      ],
      [
        "in",
        "d"
      ],
      [
        "a",
        "ch"
      ],
      [
        "Ġ1",
        "9"
      ],
      [
        "re",
        "n"
      ],
      [
        "ent",
        "s"
      ],
      [
        "Ġal",
        "so"
      ],
      [
        "Ġt",
        "e"
      ],
      [
        "Ġim",
        "p"
      ],
      [
        "o",
        "se"
      ],
      [
        "re",
        "at"
      ],
      [
        "as",
        "s"
      ],
      [
        "e",
        "p"
      ],
      [
        "a",
        "ke"
      ],
      [
        "ig",
        "n"
      ],
      [
        "res",
        "s"
      ],
      [
        "as",
        "e"
      ],
      [
        "Ġ",
        "j"
      ],
      [
        "a",
        "u"
      ],
      [
        "a",
        "v"
      ],
      [
        "it",
        "ion"
      ],
      [
        "Ġs",
        "o"
      ],
      [
        "b",
        "er"
      ],
      [
        "ic",
        "e"
      ],
      [
        "Ġa",
        "r"
      ],
      [
        "Ġu",
        "n"
      ],
      [
        "ct",
        "ion"
      ],
      [
        "Ġo",
        "ut"
      ],
      [
        "Ġp",
        "art"
      ],
      [
        "ver",
        "y"
      ],
      [
        "Ġa",
        "pp"
      ],
      [
        "im",
        "e"
      ],
      [
        "is",
        "h"
      ],
      [
        "Ġab",
        "out"
      ],
      [
        "f",
        "e"
      ],
      [
        "Ġh",
        "is"
      ],
      [
        "or",
        "d"
      ],
      [
        "Ġe",
        "v"
      ],
      [
        "or",
        "y"
      ],
      [
        "on",
        "e"
      ],
      [
        "o",
        "k"
      ],
      [
        "am",
        "e"
      ],
      [
        "Ġwh",
        "o"
      ],
      [
        "en",
        "s"
      ],
      [
        "a",
        "ce"
      ],
      [
        "ou",
        "nt"
      ],
      [
        "Ġst",
        "ud"
      ],
      [
        "i",
        "re"
      ],
      [
        ")",
        "."
      ],
      [
        "u",
        "b"
      ],
      [
        "Ġp",
        "e"
      ],
      [
        "ac",
        "k"
      ],
      [
        "Ġin",
        "f"
      ],
      [
        "Ġ",
        "K"
      ],
      [
        "Ġ",
        "\""
      ],
      [
        "Ġs",
        "c"
      ],
      [
        "u",
        "e"
      ],
      [
        "Ġthe",
        "m"
      ],
      [
        "Ġs",
        "y"
      ],
      [
        "it",
        "e"
      ],
      [
        "Ġcom",
        "m"
      ],
      [
        "or",
        "s"
      ],
      [
        "o",
        "f"
      ],
      [
        "re",
        "e"
      ],
      [
        "an",
        "g"
      ],
      [
        "ou",
        "nd"
      ],
      [
        "ĠS",
        "t"
      ],
      [
        "n",
        "ow"
      ],
      [
        "i",
        "ke"
      ],
      [
        "c",
        "es"
      ],
      [
        "l",
        "ow"
      ],
      [
        "Ġbe",
        "c"
      ],
      [
        "Ġu",
        "p"
      ],
      [
        "ĠI",
        "t"
      ],
      [
        "ol",
        "og"
      ],
      [
        "ĠC",
        "h"
      ],
      [
        "i",
        "e"
      ],
      [
        "Ġth",
        "an"
      ],
      [
        "Ġp",
        "re"
      ],
      [
        "i",
        "an"
      ],
      [
        "i",
        "le"
      ],
      [
        "Ġm",
        "ay"
      ],
      [
        "Ġy",
        "ear"
      ],
      [
        "Ġ",
        "qu"
      ],
      [
        "r",
        "ic"
      ],
      [
        "Ġs",
        "ome"
      ],
      [
        "Ġbe",
        "en"
      ],
      [
        "Ġre",
        "c"
      ],
      [
        "ay",
        "s"
      ],
      [
        "Ġthe",
        "re"
      ],
      [
        "op",
        "le"
      ],
      [
        "at",
        "es"
      ],
      [
        "a",
        "il"
      ],
      [
        "ing",
        "s"
      ],
      [
        "nd",
        "er"
      ],
      [
        "Ġwhe",
        "n"
      ],
      [
        "m",
        "er"
      ],
      [
        "ou",
        "gh"
      ],
      [
        "p",
        "h"
      ],
      [
        "Ġit",
        "s"
      ],
      [
        "Ġa",
        "g"
      ],
      [
        "Ġint",
        "o"
      ],
      [
        "Ġg",
        "o"
      ],
      [
        "r",
        "it"
      ],
      [
        "te",
        "xt"
      ],
      [
        "Ġt",
        "ime"
      ],
      [
        "Ġt",
        "ra"
      ],
      [
        "ver",
        "s"
      ],
      [
        "Ġwor",
        "k"
      ],
      [
        "Ġh",
        "ad"
      ],
      [
        "on",
        "s"
      ],
      [
        "Ġ2",
        "0"
      ],
      [
        "er",
        "v"
      ],
      [
        "Ġ",
        "V"
      ],
      [
        "Ġthe",
        "se"
      ],
      [
        "rou",
        "gh"
      ],
      [
        "Ġo",
        "ver"
      ],
      [
        "ĠTh",
        "is"
      ],
      [
        "al",
        "ly"
      ],
      [
        "l",
        "ud"
      ],
      [
        "Ġh",
        "ow"
      ],
      [
        "o",
        "ve"
      ],
      [
        "on",
        "d"
      ],
      [
        "Ġpe",
        "ople"
      ],
      [
        "Ġd",
        "if"
      ],
      [
        "m",
        "s"
      ],
      [
        "Ġ",
        "ra"
      ],
      [
        "ter",
        "n"
      ],
      [
        "Ġcon",
        "s"
      ],
      [
        "au",
        "se"
      ],
      [
        "l",
        "l"
      ],
      [
        "Ġc",
        "ol"
      ],
      [
        "Ġo",
        "ur"
      ],
      [
        "Ġ",
        "3"
      ],
      [
        "Ġ",
        "ro"
      ],
      [
        "re",
        "nt"
      ],
      [
        "Ġt",
        "r"
      ],
      [
        "Ġa",
        "ct"
      ],
      [
        "w",
        "e"
      ],
      [
        "Ġu",
        "se"
      ],
      [
        "if",
        "ic"
      ],
      [
        "Ġbe",
        "t"
      ],
      [
        "Ġm",
        "ost"
      ],
      [
        "in",
        "t"
      ],
      [
        "l",
        "ic"
      ],
      [
        "ir",
        "st"
      ],
      [
        "Ġk",
        "now"
      ],
      [
        "Ġw",
        "ould"
      ],
      [
        "Ġs",
        "a"
      ],
      [
        "|",
        ">"
      ],
      [
        "<",
        "|"
      ],
      [
        "end",
        "of"
      ],
      [
        "endof",
        "text"
      ],
      [
        "j",
        "ect"
      ],
      [
        "Ġd",
        "es"
      ],
      [
        "le",
        "ct"
      ],
      [
        "Ġu",
        "nder"
      ],
      [
        "y",
        "s"
      ],
      [
        "ment",
        "s"
      ],
      [
        "it",
        "ies"
      ],
      [
        "i",
        "ous"
      ],
      [
        "n",
        "ing"
      ],
      [
        "Ġl",
        "ike"
      ],
      [
        "Ġb",
        "l"
      ],
      [
        "o",
        "ok"
      ],
      [
        "ro",
        "w"
      ],
      [
        "Ġt",
        "w"
      ],
      [
        "Ġa",
        "cc"
      ],
      [
        "Ġne",
        "w"
      ],
      [
        "Ġ",
        "Y"
      ],
      [
        "al",
        "th"
      ],
      [
        "st",
        "em"
      ],
      [
        "l",
        "es"
      ],
      [
        "vel",
        "op"
      ],
      [
        "Ġre",
        "l"
      ],
      [
        "Ġsu",
        "ch"
      ],
      [
        "ation",
        "al"
      ],
      [
        "i",
        "ent"
      ],
      [
        "Ġ",
        "if"
      ],
      [
        "Ġre",
        "p"
      ],
      [
        "Ġne",
        "ed"
      ],
      [
        "ff",
        "ect"
      ],
      [
        "Ġn",
        "o"
      ],
      [
        "Ġan",
        "y"
      ],
      [
        "he",
        "d"
      ],
      [
        "Ġinc",
        "lud"
      ],
      [
        "Ġch",
        "ild"
      ],
      [
        "Ġg",
        "en"
      ],
      [
        "at",
        "ive"
      ],
      [
        "ul",
        "ar"
      ],
      [
        "Ġon",
        "ly"
      ],
      [
        "p",
        "le"
      ],
      [
        "Ġwh",
        "at"
      ],
      [
        ")",
        ","
      ],
      [
        "Ġp",
        "r"
      ],
      [
        "Ġhe",
        "l"
      ],
      [
        "o",
        "b"
      ],
      [
        "c",
        "ess"
      ],
      [
        "c",
        "ed"
      ],
      [
        "Ġpro",
        "v"
      ],
      [
        "Ġp",
        "h"
      ],
      [
        "o",
        "v"
      ],
      [
        "ĠU",
        "n"
      ],
      [
        "Ġp",
        "o"
      ],
      [
        "Ġf",
        "irst"
      ],
      [
        "at",
        "ing"
      ],
      [
        "Ġman",
        "y"
      ],
      [
        "Ġus",
        "ed"
      ],
      [
        "Ġth",
        "rough"
      ],
      [
        "Ġhel",
        "p"
      ],
      [
        "Ġpro",
        "du"
      ],
      [
        "y",
        "p"
      ],
      [
        "i",
        "et"
      ],
      [
        "ĠH",
        "e"
      ],
      [
        "u",
        "c"
      ],
      [
        "Ġin",
        "d"
      ],
      [
        "Ġa",
        "m"
      ],
      [
        "er",
        "m"
      ],
      [
        "os",
        "s"
      ],
      [
        "Ġde",
        "velop"
      ],
      [
        "at",
        "h"
      ],
      [
        "is",
        "e"
      ],
      [
        "f",
        "ter"
      ],
      [
        "rou",
        "nd"
      ],
      [
        "Ġsp",
        "ec"
      ],
      [
        "o",
        "ol"
      ],
      [
        "n",
        "e"
      ],
      [
        "ri",
        "b"
      ],
      [
        "Ġa",
        "c"
      ],
      [
        "ar",
        "k"
      ],
      [
        "Ġe",
        "m"
      ],
      [
        "ur",
        "ing"
      ],
      [
        "Ġre",
        "g"
      ],
      [
        "Ġtw",
        "o"
      ],
      [
        "ic",
        "s"
      ],
      [
        "Ġf",
        "e"
      ],
      [
        "Ġex",
        "p"
      ],
      [
        "in",
        "k"
      ],
      [
        "Ġsy",
        "stem"
      ],
      [
        "he",
        "n"
      ],
      [
        "f",
        "ul"
      ],
      [
        "is",
        "s"
      ],
      [
        "i",
        "ed"
      ],
      [
        "Ġo",
        "b"
      ],
      [
        "Ġof",
        "f"
      ],
      [
        "ol",
        "d"
      ],
      [
        "ot",
        "h"
      ],
      [
        "et",
        "h"
      ],
      [
        "il",
        "ity"
      ],
      [
        "Ġdif",
        "fe"
      ],
      [
        "er",
        "t"
      ],
      [
        "Ġas",
        "s"
      ],
      [
        "Ġat",
        "t"
      ],
      [
        "ib",
        "le"
      ],
      [
        "Ġde",
        "c"
      ],
      [
        "Ġs",
        "ur"
      ],
      [
        "ro",
        "p"
      ],
      [
        "if",
        "e"
      ],
      [
        "as",
        "ed"
      ],
      [
        "Ġ",
        "-"
      ],
      [
        "t",
        "en"
      ],
      [
        "al",
        "s"
      ],
      [
        "Ġad",
        "d"
      ],
      [
        "an",
        "ge"
      ],
      [
        "ĠâĢ",
        "ĵ"
      ],
      [
        "ar",
        "ch"
      ],
      [
        "n",
        "g"
      ],
      [
[...]
